<unk>	0
<s>	0
</s>	0
'	-2.98019
,	-3.12237
▁I	-3.21251
s	-3.70948
▁the	-3.75216
▁you	-3.93466
▁a	-4.04619
▁to	-4.11552
t	-4.28321
m	-4.44331
▁it	-4.45245
▁and	-4.45473
▁me	-4.59399
▁in	-4.7206
▁my	-4.73389
▁of	-4.92678
▁that	-4.96781
-	-5.09439
▁	-5.10896
▁on	-5.11575
▁like	-5.16406
▁(	-5.21837
▁'	-5.23538
▁your	-5.24159
▁And	-5.25795
?	-5.28657
▁this	-5.33214
▁just	-5.35835
▁with	-5.36107
▁up	-5.37024
ing	-5.37681
▁is	-5.38266
▁be	-5.45165
▁for	-5.50737
re	-5.52472
▁don	-5.53945
▁You	-5.54314
)	-5.55588
.	-5.56235
▁[	-5.57188
▁get	-5.58856
▁can	-5.62858
ed	-5.69224
▁we	-5.73565
▁But	-5.74056
▁so	-5.78357
▁was	-5.79169
d	-5.81232
▁out	-5.84236
▁what	-5.84778
▁all	-5.86555
ll	-5.88513
▁know	-5.89301
▁shit	-5.91991
▁back	-5.94328
▁at	-5.94949
▁no	-5.95764
▁do	-5.95954
▁got	-5.96359
▁when	-5.97757
▁but	-6.01273
▁they	-6.0182
!	-6.02828
Cause	-6.05035
n	-6.06428
▁ain	-6.08308
▁go	-6.10276
▁So	-6.12111
]	-6.12213
:]	-6.13723
e	-6.17617
▁"	-6.19764
▁one	-6.22376
▁he	-6.26726
▁as	-6.27235
▁not	-6.28078
▁say	-6.30239
▁from	-6.33364
▁her	-6.33865
▁off	-6.36338
▁if	-6.36623
▁see	-6.3718
▁fuck	-6.38707
▁never	-6.40924
▁The	-6.429
▁have	-6.43176
y	-6.45976
▁think	-6.48796
▁now	-6.4938
▁down	-6.51949
▁It	-6.52156
▁are	-6.52413
▁time	-6.54157
▁an	-6.54439
▁make	-6.58281
▁man	-6.59694
em	-6.6031
▁his	-6.61088
▁who	-6.61869
ve	-6.6193
▁love	-6.65526
▁how	-6.65567
▁That	-6.67481
▁him	-6.68489
▁A	-6.68649
▁there	-6.688
▁let	-6.68834
Eminem	-6.69398
▁she	-6.69427
"	-6.70068
▁wanna	-6.7039
▁bitch	-6.70564
▁or	-6.71312
▁My	-6.76547
▁We	-6.77178
▁too	-6.77788
ly	-6.78444
▁want	-6.78445
in	-6.79857
▁some	-6.80086
▁been	-6.80129
▁take	-6.80363
f	-6.80405
▁could	-6.81163
▁gonna	-6.81537
▁said	-6.82643
▁little	-6.82644
▁us	-6.83035
▁ass	-6.84925
▁here	-6.8561
▁through	-6.85667
▁feel	-6.8576
▁Now	-6.86391
▁over	-6.86777
▁these	-6.90727
▁come	-6.90822
cause	-6.91305
▁even	-6.91949
▁way	-6.92544
▁more	-6.94948
!)	-6.95105
▁why	-6.97481
▁did	-6.98358
▁about	-6.98563
▁right	-6.99668
I	-7.00871
er	-7.00927
▁fucking	-7.00994
▁still	-7.01445
▁then	-7.03016
▁had	-7.03293
▁To	-7.04018
▁need	-7.04627
▁ever	-7.05012
▁ya	-7.06319
a	-7.08262
▁better	-7.09396
▁This	-7.09415
▁Shady	-7.09895
▁put	-7.10416
▁fuckin	-7.11543
▁will	-7.12352
▁Just	-7.12728
▁give	-7.13121
▁day	-7.15137
▁call	-7.15887
▁Oh	-7.16185
▁When	-7.16469
▁look	-7.19419
▁baby	-7.20155
▁won	-7.20167
▁yeah	-7.20328
▁world	-7.21252
...	-7.22222
▁only	-7.23258
▁would	-7.24269
▁name	-7.25739
▁head	-7.25997
▁He	-7.26255
▁much	-7.26889
▁where	-7.27525
▁What	-7.27642
▁than	-7.27943
▁life	-7.29839
▁hit	-7.31052
▁again	-7.31605
▁them	-7.32036
▁S	-7.32455
▁They	-7.32636
▁two	-7.32868
▁girl	-7.33535
▁by	-7.3396
▁into	-7.34342
▁every	-7.36178
▁keep	-7.37253
Chorus	-7.37791
▁around	-7.3873
▁tell	-7.42452
▁cause	-7.4541
▁Dre	-7.45915
▁Yeah	-7.46346
▁No	-7.47081
▁bad	-7.47992
▁good	-7.48131
▁Don	-7.48739
▁boy	-7.49336
▁beat	-7.50018
▁Who	-7.50474
▁hear	-7.50669
▁Like	-7.51044
▁am	-7.51485
▁try	-7.51946
▁-	-7.52056
▁going	-7.52168
▁leave	-7.52518
▁stop	-7.52579
▁dick	-7.5309
▁Fuck	-7.53571
▁crazy	-7.54027
▁oh	-7.54139
▁rap	-7.56458
▁run	-7.56969
▁With	-7.57124
▁gotta	-7.57208
▁made	-7.57233
..	-7.58471
r	-7.58484
▁B	-7.59182
▁should	-7.59296
▁All	-7.59802
▁same	-7.60328
▁She	-7.60343
▁face	-7.60359
til	-7.60504
▁walk	-7.60541
g	-7.60952
▁hate	-7.63271
▁other	-7.63604
▁G	-7.63812
▁D	-7.64858
▁There	-7.64935
▁mean	-7.66156
▁told	-7.66377
all	-7.67769
▁In	-7.68148
’	-7.69632
▁people	-7.69632
▁left	-7.69632
▁thing	-7.69905
▁show	-7.70352
▁away	-7.7085
▁always	-7.71425
▁while	-7.71431
▁our	-7.71458
▁W	-7.71645
▁enough	-7.73252
▁last	-7.73254
▁first	-7.74188
▁really	-7.75202
▁kill	-7.75419
▁Let	-7.76286
▁guess	-7.76869
▁might	-7.77814
▁God	-7.78157
▁were	-7.78162
▁game	-7.78421
▁place	-7.79158
▁play	-7.7951
▁sick	-7.79916
▁home	-7.79948
▁start	-7.80029
▁night	-7.80613
▁nothing	-7.80946
!"	-7.82559
▁Then	-7.82856
▁Slim	-7.83029
▁new	-7.83547
▁find	-7.84994
▁yo	-7.85318
▁song	-7.85721
▁done	-7.86139
▁before	-7.87225
▁T	-7.8761
▁thought	-7.878
▁gon	-7.88125
▁C	-7.88137
▁act	-7.88523
▁any	-7.8886
▁Eminem	-7.8923
▁something	-7.89243
▁went	-7.89261
▁old	-7.89276
▁How	-7.8935
Vers	-7.89545
▁Maybe	-7.90299
mma	-7.9055
▁Get	-7.90969
▁whole	-7.91505
▁end	-7.9194
▁Can	-7.92077
▁mind	-7.922
?)	-7.92473
▁next	-7.92504
es	-7.92978
▁probably	-7.93628
▁y	-7.94009
▁For	-7.94407
▁white	-7.94763
▁gone	-7.9498
▁another	-7.94998
bout	-7.95809
▁M	-7.96913
▁house	-7.97087
▁must	-7.97104
▁Why	-7.97105
▁fire	-7.97984
▁high	-7.98012
▁real	-7.98166
▁long	-7.98184
▁myself	-7.98273
al	-7.98445
▁Man	-7.98451
▁turn	-7.98532
▁stand	-7.98919
▁came	-7.99453
▁Or	-7.99495
ma	-7.99541
▁die	-8.00079
:	-8.0036
▁damn	-8.01515
▁dead	-8.0176
▁things	-8.02757
▁On	-8.02777
▁inside	-8.03158
▁sit	-8.04418
▁hold	-8.05066
▁Come	-8.05705
▁without	-8.05872
▁mom	-8.05905
▁E	-8.06519
▁own	-8.0671
le	-8.06785
▁cold	-8.06922
▁used	-8.06927
▁spit	-8.07179
▁hope	-8.07269
Yeah	-8.07543
▁has	-8.08078
AH	-8.08097
▁hand	-8.0844
▁i	-8.08755
▁blow	-8.10195
▁pull	-8.10444
▁fight	-8.10492
▁Got	-8.10765
▁tryna	-8.10856
▁someone	-8.10879
▁hell	-8.11564
▁meant	-8.11704
on	-8.12025
▁though	-8.12177
▁music	-8.12198
▁knew	-8.12198
▁nobody	-8.12214
▁Look	-8.12318
▁mic	-8.12394
▁brain	-8.12482
▁shot	-8.12514
▁once	-8.12532
▁big	-8.12706
▁fall	-8.13019
▁car	-8.1327
▁black	-8.13426
▁their	-8.13881
▁nigga	-8.13901
o	-8.14908
▁may	-8.1496
▁Bitch	-8.14967
▁kids	-8.15325
;	-8.16365
▁each	-8.16367
▁everybody	-8.16402
▁lot	-8.16637
da	-8.17173
▁full	-8.17474
▁everything	-8.17794
▁getting	-8.18098
Til	-8.18583
▁talk	-8.18671
▁words	-8.19221
▁half	-8.19244
▁please	-8.19245
▁cut	-8.19594
▁door	-8.19796
▁light	-8.21064
se	-8.21109
▁sound	-8.212
▁R	-8.22023
▁drop	-8.22696
▁Well	-8.23478
▁comes	-8.23696
▁alone	-8.23722
▁mouth	-8.23737
▁dance	-8.23779
▁best	-8.24278
▁those	-8.25262
▁See	-8.25363
▁O	-8.26256
▁P	-8.26475
▁2	-8.26575
▁nothin	-8.26788
▁yourself	-8.26836
▁almost	-8.27005
▁live	-8.27461
▁many	-8.2766
[	-8.28092
▁mad	-8.28256
▁help	-8.28392
▁else	-8.28427
▁side	-8.28556
▁since	-8.2863
▁goes	-8.28776
▁hard	-8.28941
▁bring	-8.30026
▁body	-8.30073
▁coming	-8.30096
▁un	-8.30138
▁grow	-8.30357
▁floor	-8.30699
▁wouldn	-8.30708
X	-8.30978
▁wait	-8.31083
▁front	-8.31668
▁heart	-8.31694
▁goin	-8.3265
▁far	-8.33158
▁pain	-8.33441
▁does	-8.33526
▁bitches	-8.3354
▁believe	-8.33802
▁Fro	-8.33858
▁Hi	-8.33962
▁fucked	-8.33981
▁bit	-8.34054
▁trying	-8.34393
▁da	-8.35086
▁huh	-8.35178
▁Go	-8.35209
▁tonight	-8.35268
▁dad	-8.35804
▁ask	-8.35947
▁eat	-8.36155
▁feeling	-8.36247
▁L	-8.36269
▁lose	-8.36731
▁everyone	-8.36771
▁party	-8.36818
▁Shit	-8.36875
i	-8.36937
▁b	-8.37257
▁flow	-8.37683
▁hurt	-8.37695
▁em	-8.38089
▁looking	-8.38245
▁broke	-8.38264
▁wrong	-8.38502
▁shake	-8.38504
▁mama	-8.38529
."	-8.38644
▁heard	-8.39251
▁bed	-8.39258
▁c	-8.3931
▁guy	-8.39635
▁stay	-8.39862
▁quit	-8.4016
▁check	-8.40233
▁seen	-8.40271
▁As	-8.41002
▁Ha	-8.41255
▁under	-8.41329
ion	-8.41502
▁being	-8.41713
▁smoke	-8.41753
▁hair	-8.41908
▁lie	-8.41913
▁change	-8.42108
▁Where	-8.42193
▁mine	-8.42206
▁took	-8.42265
▁Marshall	-8.42287
▁break	-8.43648
▁move	-8.43955
▁remember	-8.4396
▁gun	-8.44374
Oh	-8.45169
▁K	-8.4539
▁reason	-8.45845
▁gave	-8.45886
▁saying	-8.45975
▁top	-8.4714
▁open	-8.47241
▁kid	-8.47269
▁wants	-8.4728
▁Here	-8.47291
▁line	-8.47373
▁doing	-8.47581
▁maybe	-8.47782
▁ho	-8.48017
▁room	-8.49035
▁matter	-8.49085
▁money	-8.4973
▁Never	-8.49736
▁set	-8.49861
▁straight	-8.50543
▁suck	-8.50654
▁Your	-8.50763
▁throw	-8.5089
▁sing	-8.51205
▁care	-8.51209
▁motherfuckin	-8.51682
▁together	-8.51729
▁lost	-8.51947
▁3	-8.51975
▁Yo	-8.52036
▁pen	-8.52131
?"	-8.52208
h	-8.52809
▁sleep	-8.52997
▁pick	-8.5308
▁wanted	-8.53629
▁after	-8.53777
▁sorry	-8.53782
▁Superman	-8.53817
ie	-8.54204
▁drugs	-8.54417
▁1	-8.54505
What	-8.55199
▁watch	-8.55214
▁rock	-8.55217
▁rhyme	-8.55487
▁friends	-8.5588
▁listen	-8.56754
▁murder	-8.57167
yeah	-8.57327
▁stick	-8.57631
▁late	-8.57864
▁school	-8.58016
▁mother	-8.58024
▁road	-8.58026
▁anything	-8.58202
▁feels	-8.58586
▁talking	-8.58693
▁Girl	-8.59795
▁both	-8.59836
▁blood	-8.59984
▁Cinderella	-8.60154
▁chance	-8.60155
▁sure	-8.60163
ta	-8.60193
▁well	-8.60727
▁started	-8.60905
▁dog	-8.61087
x	-8.61842
▁minute	-8.62149
▁step	-8.62283
▁alright	-8.62376
▁wonder	-8.62395
▁already	-8.62399
▁Put	-8.62463
▁because	-8.62532
▁Hailie	-8.62697
▁close	-8.62855
▁knock	-8.63678
up	-8.63742
▁beef	-8.64019
ies	-8.64211
▁fact	-8.64392
▁MC	-8.64415
▁couple	-8.64652
▁water	-8.64689
▁F	-8.64803
▁crack	-8.6539
ers	-8.65421
▁hot	-8.66282
▁kick	-8.66358
It	-8.66534
ce	-8.66549
▁club	-8.66575
ther	-8.66612
▁motherfucker	-8.6688
▁afraid	-8.66975
▁One	-8.67392
▁soon	-8.67554
▁lay	-8.67682
▁niggas	-8.68786
▁[2	-8.68787
to	-8.68812
▁Me	-8.68944
▁block	-8.69037
▁friend	-8.69329
▁true	-8.69732
▁use	-8.70567
p	-8.70974
▁million	-8.71362
▁homie	-8.71642
▁dream	-8.71758
▁stuck	-8.71798
z	-8.71799
▁moment	-8.7181
▁soul	-8.7183
▁yah	-8.71953
▁word	-8.71953
▁Ah	-8.73062
l	-8.73219
▁work	-8.73282
▁days	-8.73548
▁shoot	-8.73598
▁follow	-8.73802
▁eyes	-8.73907
▁ball	-8.73976
▁dark	-8.74289
▁tomorrow	-8.74295
▁Some	-8.74392
▁shut	-8.75065
▁jump	-8.75876
▁hands	-8.76236
▁N	-8.76541
▁balls	-8.76777
▁nice	-8.76806
▁fun	-8.76855
▁bust	-8.7686
▁throat	-8.76888
▁shoes	-8.77066
▁Eve	-8.7707
▁deal	-8.77642
out	-8.78174
▁Be	-8.7921
▁America	-8.79222
▁catch	-8.79449
▁six	-8.79486
▁most	-8.79509
▁three	-8.79518
▁tried	-8.79553
▁save	-8.79559
▁tryin	-8.79845
▁Ain	-8.80433
▁nuts	-8.80464
▁times	-8.80987
B	-8.81052
▁air	-8.81284
▁second	-8.82194
▁different	-8.82199
▁fast	-8.82228
▁Everybody	-8.82259
▁neck	-8.82264
▁pop	-8.82266
▁Every	-8.82266
▁father	-8.82296
▁meet	-8.8232
▁along	-8.82324
▁gettin	-8.82331
▁year	-8.82359
▁re	-8.82938
▁suppose	-8.83314
▁sayin	-8.83558
▁cry	-8.84421
mon	-8.84762
▁fell	-8.84898
▁worse	-8.84971
▁behind	-8.84971
▁found	-8.84972
▁tired	-8.84993
▁corner	-8.85029
▁Mr	-8.85085
or	-8.85172
▁outta	-8.85345
▁gets	-8.85418
▁ride	-8.85842
Dr	-8.8602
ting	-8.86137
uh	-8.86525
▁rappers	-8.86649
▁bare	-8.87741
▁Y	-8.87747
▁write	-8.87798
▁bottle	-8.87801
▁rest	-8.87823
▁beautiful	-8.87828
▁Mathers	-8.87829
▁forget	-8.87836
▁saw	-8.87836
▁such	-8.87844
▁White	-8.87903
▁eye	-8.88198
an	-8.88209
▁voice	-8.88214
▁record	-8.88244
fore	-8.8846
less	-8.89307
),	-8.8973
aught	-8.89986
No	-8.90119
en	-8.90204
▁roll	-8.90254
E	-8.90325
▁knows	-8.90443
▁free	-8.90663
▁fault	-8.90769
▁wrote	-8.90769
▁least	-8.9077
▁knife	-8.9078
▁somebody	-8.90784
▁anyone	-8.90793
▁loose	-8.90802
▁ready	-8.90866
▁bomb	-8.91243
▁wall	-8.91365
▁looks	-8.9222
▁fly	-8.93149
▁girls	-8.93588
▁pay	-8.93706
▁fack	-8.9384
▁evil	-8.93892
ic	-8.93923
▁motherfuckers	-8.93931
▁ha	-8.9408
est	-8.94139
chka	-8.94163
S	-8.9475
▁tape	-8.94848
▁drive	-8.95544
no	-8.95688
la	-8.95842
A	-8.95934
▁uh	-8.96203
▁Do	-8.96776
▁ra	-8.96812
▁fill	-8.96829
▁comin	-8.96886
▁trash	-8.96926
▁pussy	-8.96936
▁Kim	-8.97003
▁motherfucking	-8.9706
▁Proof	-8.97064
▁rain	-8.97189
▁reach	-8.97394
▁hip	-8.97422
▁window	-8.97639
▁J	-8.97794
▁hoes	-8.98095
▁skin	-8.98793
ake	-8.98985
You	-8.99396
▁shots	-8.99568
▁miss	-8.99695
th	-8.99777
▁slow	-8.99944
▁chick	-8.99987
▁kind	-9.00063
▁understand	-9.00143
▁death	-9.00153
▁wake	-9.00159
▁paper	-9.00171
▁goodbye	-9.00176
▁verse	-9.00199
▁Of	-9.0027
▁sometimes	-9.00276
hile	-9.00296
▁till	-9.00336
▁Dr	-9.00458
▁track	-9.00941
▁today	-9.01076
▁Tak	-9.01214
▁insane	-9.02131
▁wish	-9.02371
▁H	-9.02531
▁star	-9.02574
▁son	-9.03014
▁box	-9.0307
▁Not	-9.03206
▁control	-9.03484
▁twice	-9.03484
▁great	-9.035
▁sky	-9.03507
▁ground	-9.03521
▁until	-9.03589
▁feet	-9.03605
▁whatever	-9.03708
▁playin	-9.03823
▁Say	-9.03971
▁drink	-9.04028
▁crying	-9.04043
▁slut	-9.0427
▁pro	-9.04665
go	-9.04751
▁killed	-9.04873
uess	-9.05446
ur	-9.06008
▁remind	-9.06565
▁learn	-9.06596
▁years	-9.06628
▁quick	-9.06689
▁scream	-9.06736
▁Hit	-9.06746
▁kiss	-9.06842
k	-9.0689
▁flip	-9.06897
▁Two	-9.06932
▁monster	-9.06932
▁stomach	-9.06932
▁swallow	-9.06932
▁which	-9.06932
▁stupid	-9.06932
▁daddy	-9.06938
▁easy	-9.06945
▁Still	-9.06949
▁four	-9.06957
▁treat	-9.0696
▁Back	-9.06978
▁single	-9.07043
▁hang	-9.07099
ha	-9.07136
▁touch	-9.07498
▁legs	-9.0751
▁spot	-9.08361
▁thinkin	-9.08399
▁("	-9.09334
M	-9.09476
Fuck	-9.09852
having	-9.10243
c	-9.1035
▁fine	-9.10378
▁clear	-9.10395
▁grab	-9.10494
▁fan	-9.10495
▁women	-9.10503
▁fear	-9.10506
▁happy	-9.10506
▁drunk	-9.10518
▁thousand	-9.1054
▁kinda	-9.10601
▁attention	-9.10604
▁50	-9.10763
▁sold	-9.10764
▁forever	-9.10842
▁Too	-9.10894
▁fit	-9.11285
Give	-9.11539
▁cops	-9.11651
▁bag	-9.11751
▁plan	-9.11876
▁arm	-9.11959
ver	-9.12238
▁mak	-9.13102
▁dope	-9.13302
bitch	-9.13556
▁pee	-9.13986
▁buy	-9.14141
▁r	-9.14183
▁Sometimes	-9.14207
▁deep	-9.14217
▁Nobody	-9.14231
▁running	-9.14232
▁Feel	-9.14249
▁five	-9.14272
▁park	-9.14638
▁boom	-9.14706
able	-9.14989
▁picture	-9.15513
▁laugh	-9.16528
▁Re	-9.16762
▁god	-9.16814
▁part	-9.17846
▁smack	-9.17884
D	-9.17914
▁Please	-9.18054
▁split	-9.18055
▁funny	-9.18059
▁darlin	-9.18063
▁past	-9.18064
▁living	-9.18065
▁darkness	-9.18067
▁between	-9.18068
▁empty	-9.18068
▁fame	-9.18068
▁greatest	-9.18069
▁Make	-9.18121
▁phone	-9.18217
▁red	-9.18254
▁none	-9.18303
▁pissed	-9.18314
▁havin	-9.18336
▁against	-9.18379
▁king	-9.18541
be	-9.18969
▁final	-9.19032
▁sense	-9.19099
▁tear	-9.19206
▁finger	-9.19525
▁pill	-9.19751
▁playing	-9.19976
▁Am	-9.20203
▁Ja	-9.20251
▁weed	-9.20731
▁thinking	-9.21074
▁means	-9.2143
W	-9.21492
▁swear	-9.21513
▁push	-9.21673
▁sweet	-9.21788
▁Wait	-9.21978
▁takin	-9.22002
▁forgot	-9.22019
▁truth	-9.22046
▁excuse	-9.22053
▁business	-9.22054
▁legacy	-9.22054
▁devil	-9.22055
▁Dogg	-9.22068
▁roof	-9.22069
▁morning	-9.22089
▁Detroit	-9.22095
▁scared	-9.22106
▁screamin	-9.22132
▁foot	-9.22147
▁wife	-9.2215
▁later	-9.22169
▁happened	-9.2226
▁talkin	-9.22322
▁p	-9.22488
▁gas	-9.22593
▁Whi	-9.22839
▁Tire	-9.22909
▁seem	-9.23372
ive	-9.23475
▁soldier	-9.23639
▁problem	-9.2368
ous	-9.23695
▁rapper	-9.23755
▁hole	-9.23763
▁e	-9.23902
hop	-9.24266
▁fans	-9.24817
▁extra	-9.24947
▁At	-9.25182
▁pass	-9.25705
▁ten	-9.25734
▁dust	-9.25809
▁d	-9.25912
▁point	-9.2594
▁low	-9.26154
▁blew	-9.2622
▁few	-9.26222
▁attack	-9.26223
▁smell	-9.26225
▁anybody	-9.26227
▁hundred	-9.26236
▁leaving	-9.26237
▁common	-9.26237
▁week	-9.26241
▁explain	-9.26243
▁OK	-9.26245
▁Tonight	-9.26252
▁begin	-9.26259
▁taking	-9.26287
▁Fack	-9.26354
▁nowhere	-9.26373
▁Daddy	-9.26379
▁Was	-9.26425
▁Sam	-9.26474
▁passed	-9.2656
▁doesn	-9.26846
▁makes	-9.26896
▁asked	-9.27106
▁s	-9.27262
▁streets	-9.27793
▁spray	-9.27874
▁daughter	-9.27981
▁snap	-9.28049
▁chuck	-9.2836
▁Ma	-9.28697
▁ta	-9.28893
▁seems	-9.29346
▁cum	-9.29687
0	-9.29893
▁cock	-9.30107
▁eight	-9.30407
▁Did	-9.30556
▁felt	-9.30568
▁respect	-9.30569
▁story	-9.30572
▁type	-9.30575
▁dropped	-9.30575
▁blue	-9.3058
▁yet	-9.30591
▁blame	-9.30593
▁self	-9.30608
▁dumb	-9.30646
ever	-9.31169
▁paint	-9.31238
▁lyrics	-9.31339
▁rhymes	-9.31343
▁nose	-9.31515
▁Right	-9.31928
G	-9.31935
▁happens	-9.32228
▁bat	-9.32589
▁dis	-9.33073
it	-9.33324
▁breathe	-9.33499
▁butt	-9.33688
▁doin	-9.33814
▁hop	-9.33833
▁pack	-9.33896
▁scratch	-9.33973
▁slap	-9.34224
man	-9.34313
▁ring	-9.34343
Hailie	-9.34454
eep	-9.34812
▁fat	-9.34905
▁cool	-9.34941
▁Pull	-9.3497
▁lead	-9.35008
▁loud	-9.35034
▁somethin	-9.35084
▁Valium	-9.35113
▁admit	-9.35113
▁jealous	-9.35113
▁neither	-9.35114
▁bottom	-9.35114
▁threw	-9.35114
▁Plus	-9.35114
▁Remember	-9.35114
▁bunch	-9.35129
▁power	-9.35143
▁pants	-9.35147
ful	-9.35201
▁prett	-9.35301
▁Grab	-9.35397
▁ran	-9.35507
my	-9.35771
is	-9.3609
ation	-9.36168
▁thoughts	-9.36638
one	-9.36739
▁songs	-9.3675
▁mirror	-9.36915
▁Jack	-9.37091
▁job	-9.37093
▁faggot	-9.37353
▁win	-9.37627
▁seat	-9.37741
ness	-9.37943
▁person	-9.37987
▁pills	-9.38038
▁doubt	-9.38684
age	-9.39199
▁mo	-9.39215
what	-9.39261
dum	-9.39292
u	-9.39405
▁taste	-9.39479
▁wear	-9.39493
us	-9.39536
▁read	-9.39612
▁raise	-9.39622
O	-9.39682
▁count	-9.39689
▁Through	-9.39875
▁After	-9.39875
▁bullshit	-9.39877
▁naked	-9.39895
▁Big	-9.3994
▁alive	-9.39947
▁outside	-9.39947
▁Whatever	-9.39971
▁Boy	-9.39997
▁punch	-9.40005
▁match	-9.40028
▁case	-9.40056
▁become	-9.40061
old	-9.40074
▁wind	-9.40204
▁longer	-9.40248
▁flames	-9.40562
▁screaming	-9.40583
▁Da	-9.40692
▁lookin	-9.40882
C	-9.41034
▁turned	-9.41294
▁whore	-9.41589
▁Gue	-9.41596
▁able	-9.41637
▁co	-9.42006
▁burn	-9.422
▁bar	-9.42203
way	-9.4225
▁album	-9.42315
▁key	-9.42375
▁St	-9.42541
▁thank	-9.42545
▁crap	-9.42587
b	-9.4259
ittle	-9.42846
▁war	-9.43083
▁de	-9.43132
ty	-9.43584
oh	-9.43851
▁piss	-9.43923
Maxine	-9.44109
▁Mo	-9.44172
ity	-9.44449
ably	-9.44693
▁9	-9.44695
▁hook	-9.44702
▁normal	-9.44733
▁land	-9.44745
▁Ever	-9.44867
▁medicine	-9.44876
▁dude	-9.44879
▁Which	-9.44881
▁fake	-9.44891
▁Lord	-9.44897
▁stage	-9.44915
▁actually	-9.44957
▁Try	-9.4505
▁belong	-9.45078
▁Tell	-9.4508
▁Obie	-9.45176
▁4	-9.45262
▁Baby	-9.45376
▁minutes	-9.45396
▁ex	-9.45915
▁bein	-9.45962
▁breath	-9.46064
▁til	-9.46184
▁feelin	-9.46363
▁dig	-9.46974
▁tie	-9.4704
▁brother	-9.47207
▁stepp	-9.47251
▁chain	-9.47462
▁joke	-9.47515
▁fool	-9.47543
▁piece	-9.47599
▁Doc	-9.47787
ish	-9.47976
▁lights	-9.48505
ld	-9.49298
ate	-9.49529
▁stab	-9.49596
▁mix	-9.49607
▁send	-9.49667
▁expect	-9.49742
▁addict	-9.49775
▁sad	-9.49895
▁short	-9.4997
▁worth	-9.50122
▁trouble	-9.50138
▁weapon	-9.50138
▁family	-9.50138
▁chest	-9.50143
▁cross	-9.50146
▁dying	-9.5015
▁style	-9.50165
▁lick	-9.50186
▁Been	-9.50186
▁blonde	-9.5019
▁hide	-9.50229
▁aim	-9.5023
▁Nigga	-9.50266
▁smile	-9.50273
▁momma	-9.5033
▁crew	-9.50353
▁Damn	-9.50378
▁Start	-9.5061
▁state	-9.50629
▁Have	-9.50664
R	-9.50779
▁kicked	-9.50922
▁woulda	-9.50991
▁fuckers	-9.51315
▁ill	-9.51419
▁died	-9.51653
lo	-9.51785
▁guys	-9.52212
▁news	-9.52336
▁heat	-9.52388
▁criminal	-9.52736
*	-9.52931
▁battle	-9.53037
▁lives	-9.53193
▁bout	-9.53439
▁spin	-9.54334
L	-9.54535
do	-9.54635
F	-9.54701
▁hey	-9.54768
▁Ti	-9.5491
Stop	-9.55005
▁chase	-9.55365
▁art	-9.55405
the	-9.55492
▁freak	-9.55567
▁Boo	-9.55646
▁apart	-9.55689
▁became	-9.55694
▁stumble	-9.55694
▁pretend	-9.55694
▁famous	-9.55694
▁damage	-9.55695
▁ladies	-9.55695
▁radio	-9.55696
▁Earth	-9.55698
▁either	-9.55698
▁booth	-9.55699
▁square	-9.55707
▁lil	-9.55708
▁number	-9.55713
▁Someone	-9.55735
▁ought	-9.55745
ment	-9.55828
▁asleep	-9.55855
▁gay	-9.55881
▁wit	-9.55928
▁hood	-9.55933
▁harder	-9.56013
▁t	-9.56024
▁Jay	-9.56105
▁standin	-9.56194
▁fed	-9.56228
▁Call	-9.56236
▁super	-9.56246
▁V	-9.56528
P	-9.56619
▁Un	-9.56831
▁lips	-9.57104
▁diss	-9.57854
▁hat	-9.57873
▁sign	-9.58341
▁Us	-9.58646
N	-9.58726
▁Hell	-9.58784
▁answer	-9.58834
▁question	-9.58858
▁asshole	-9.58859
▁tree	-9.58985
▁makin	-9.59181
▁closet	-9.59327
and	-9.5937
▁layin	-9.59696
V	-9.59699
day	-9.59784
▁su	-9.59847
▁Rap	-9.60275
▁keeps	-9.60288
▁sun	-9.60496
ine	-9.60516
uch	-9.60778
you	-9.60866
Who	-9.60923
▁dirt	-9.61399
▁Jesus	-9.61576
▁goddamn	-9.61576
▁husband	-9.61576
▁woman	-9.61576
▁destroy	-9.61576
▁safe	-9.61576
▁middle	-9.61581
▁instead	-9.61583
▁twenty	-9.61585
▁trust	-9.61593
▁w	-9.61602
▁Black	-9.61603
▁carry	-9.61606
▁penis	-9.61609
▁Cent	-9.61616
▁popping	-9.6162
▁ok	-9.61732
▁double	-9.61759
▁wash	-9.61784
▁parents	-9.61812
▁sent	-9.61949
▁Nah	-9.61981
▁rise	-9.62055
▁young	-9.6223
▁share	-9.62253
▁raps	-9.62441
▁Fuckin	-9.6245
▁bones	-9.62642
ent	-9.62678
sh	-9.62708
▁m	-9.62885
▁sp	-9.63854
▁standing	-9.6402
ah	-9.64046
troll	-9.6406
▁An	-9.64152
ather	-9.64188
▁bi	-9.64608
▁store	-9.64622
co	-9.64735
▁ga	-9.64823
ne	-9.64845
▁takes	-9.64959
▁Bill	-9.65138
▁mistake	-9.65161
▁sex	-9.65189
giving	-9.65274
▁telling	-9.65829
The	-9.66018
▁Pac	-9.66337
▁faith	-9.66768
▁speak	-9.66787
whoa	-9.6687
ng	-9.66976
ooh	-9.67003
▁pray	-9.67015
Denaun	-9.67143
Yo	-9.67162
Hey	-9.67209
▁rip	-9.67219
▁Em	-9.67342
▁figure	-9.67485
▁escape	-9.67486
▁f	-9.67507
▁corn	-9.67716
▁en	-9.67816
▁Should	-9.67826
▁liquor	-9.67826
▁Everything	-9.67826
▁zombie	-9.67826
▁Christmas	-9.67826
▁Uncon	-9.67827
▁313	-9.67827
▁lady	-9.67827
▁jail	-9.67828
▁across	-9.67828
▁dangerous	-9.67828
▁exact	-9.67831
▁public	-9.67831
▁Trice	-9.67834
▁clothes	-9.67834
▁popped	-9.67834
▁shout	-9.67837
▁Shake	-9.67841
▁coke	-9.67846
▁course	-9.6785
▁city	-9.67854
▁spark	-9.67869
▁liar	-9.67891
▁human	-9.67898
▁lawn	-9.67927
▁Jump	-9.67928
▁Ca	-9.67938
▁twin	-9.6794
▁dang	-9.67944
▁chill	-9.67948
▁feed	-9.67976
▁very	-9.67976
▁gold	-9.68063
▁Evil	-9.68066
▁Because	-9.68098
▁climb	-9.68198
▁handle	-9.68228
▁Bizarre	-9.68246
▁career	-9.68276
▁haters	-9.68281
▁Thought	-9.68338
▁rush	-9.68344
▁Nate	-9.68371
▁guts	-9.68408
ally	-9.6843
▁ooh	-9.68516
▁Know	-9.68599
▁broken	-9.68703
el	-9.68736
▁Uh	-9.68799
▁hi	-9.68856
▁lyrical	-9.68951
▁throwing	-9.69347
▁ahead	-9.69457
▁Le	-9.69571
▁stops	-9.6968
▁waiting	-9.69719
▁shoulders	-9.69726
▁Think	-9.69766
ry	-9.69828
▁guns	-9.69872
▁blowing	-9.70146
▁Mom	-9.70217
▁Dad	-9.70233
▁Hey	-9.70335
ach	-9.70392
▁hurts	-9.70513
▁says	-9.70619
▁X	-9.70724
de	-9.70844
▁happen	-9.71028
!!	-9.7115
▁prick	-9.71152
▁New	-9.71153
▁Turn	-9.71567
▁ear	-9.71771
▁punk	-9.71793
▁Run	-9.71808
round	-9.7187
▁street	-9.72065
▁cup	-9.7221
▁Bette	-9.72281
▁nut	-9.7231
ant	-9.72997
▁lo	-9.73033
")	-9.73208
▁clean	-9.73617
Baby	-9.73823
Marshall	-9.73835
▁crush	-9.73945
▁j	-9.73988
▁dress	-9.73996
▁stuff	-9.74002
▁sweat	-9.7433
▁strong	-9.74403
▁whip	-9.74405
▁glass	-9.74446
▁tough	-9.74487
▁wack	-9.74492
▁Aftermath	-9.74493
▁critics	-9.74493
▁ourselves	-9.74493
▁worry	-9.74493
▁Would	-9.74493
▁hospital	-9.74493
▁police	-9.74493
▁proud	-9.74493
▁Alright	-9.74493
▁green	-9.74494
▁static	-9.74494
▁backstabber	-9.74495
▁porch	-9.74495
▁tongue	-9.74495
▁glue	-9.745
▁yesterday	-9.74502
▁woke	-9.74502
▁small	-9.74505
▁beginning	-9.74507
▁stack	-9.7451
▁Throw	-9.74519
▁plate	-9.74522
▁size	-9.74522
▁Somebody	-9.74524
▁everywhere	-9.74533
▁10	-9.74537
▁Stay	-9.74541
▁anymore	-9.74562
▁rich	-9.74564
▁child	-9.74601
▁test	-9.74638
▁truck	-9.7466
▁mode	-9.7467
▁People	-9.74703
▁twisted	-9.74721
▁duck	-9.74763
▁Time	-9.74779
▁apple	-9.74939
▁shirt	-9.74967
▁older	-9.75099
▁lit	-9.75186
▁round	-9.75191
▁curse	-9.75279
▁anger	-9.75449
▁murdered	-9.75604
▁regrets	-9.7565
▁knees	-9.75669
▁bullets	-9.76186
▁blades	-9.7619
▁killer	-9.76236
▁bet	-9.76785
efore	-9.76895
▁finn	-9.76966
▁given	-9.7782
▁blind	-9.7788
▁Jo	-9.78006
▁games	-9.78254
tin	-9.78255
▁walking	-9.7857
head	-9.78618
▁noise	-9.78684
▁Since	-9.78819
▁crowd	-9.78875
▁startin	-9.78997
▁Lo	-9.79001
▁bite	-9.79103
▁letter	-9.79258
▁skill	-9.79274
▁Liv	-9.79872
▁hoe	-9.80151
hh	-9.80343
▁records	-9.80581
▁yell	-9.80605
▁nine	-9.80692
bye	-9.80702
Huh	-9.80711
▁tea	-9.80752
▁ca	-9.80769
blo	-9.80916
Hello	-9.80945
▁La	-9.80954
huh	-9.81039
▁sell	-9.81128
▁fix	-9.81249
▁cent	-9.81337
▁trick	-9.81365
▁peace	-9.81394
▁smart	-9.81519
▁fresh	-9.81531
▁wreck	-9.81625
robably	-9.81627
▁class	-9.81635
▁spirit	-9.81636
▁struggle	-9.81636
▁support	-9.81636
▁stole	-9.81636
▁engine	-9.81636
▁machine	-9.81636
▁whack	-9.81637
▁erra	-9.81637
▁Wayne	-9.81638
▁awake	-9.81638
▁strength	-9.81639
▁Must	-9.8164
▁trunk	-9.81641
▁ripped	-9.81641
▁paid	-9.81642
▁mention	-9.81643
▁weenie	-9.81645
▁smoking	-9.81646
▁creep	-9.81653
▁Kick	-9.81656
▁chicken	-9.81669
▁snake	-9.81673
▁dough	-9.8168
▁nah	-9.81682
▁upset	-9.81685
▁trailer	-9.81685
▁verbal	-9.81686
▁bigger	-9.8169
▁Mama	-9.81707
▁Life	-9.81717
▁clock	-9.81763
▁honey	-9.81775
▁5	-9.81801
▁cheat	-9.81812
▁sitting	-9.81816
▁offended	-9.81842
▁finished	-9.81904
▁Yes	-9.81917
▁cap	-9.82105
▁mushrooms	-9.82117
▁Co	-9.82135
▁signed	-9.82147
▁Ball	-9.82171
▁special	-9.82264
▁canno	-9.82272
▁wrappe	-9.82356
▁men	-9.82514
T	-9.82719
*]	-9.8272
anna	-9.8273
▁Doing	-9.82737
ite	-9.83118
▁Will	-9.83306
rought	-9.83368
▁tip	-9.83421
▁mess	-9.84073
▁falling	-9.84202
▁Jam	-9.84337
ar	-9.84516
▁sa	-9.84949
hhh	-9.85008
▁bum	-9.85056
te	-9.8533
▁starts	-9.85357
▁orange	-9.85997
▁John	-9.86037
▁CD	-9.86109
ide	-9.86461
▁cop	-9.86692
▁drug	-9.86855
▁Bob	-9.87566
▁Sing	-9.87766
12	-9.87774
▁o	-9.88416
▁goat	-9.88454
special	-9.88653
hey	-9.88769
▁flash	-9.88806
pee	-9.88861
▁blast	-9.88965
▁choke	-9.89005
▁witness	-9.89045
▁wipe	-9.89067
▁post	-9.89118
▁Good	-9.89144
▁perfect	-9.89205
▁Rock	-9.89233
▁trip	-9.89277
▁magic	-9.89284
▁jerk	-9.89326
CHORUS	-9.89328
▁choice	-9.89328
▁claim	-9.89328
▁angry	-9.89328
▁patient	-9.89328
▁marijuana	-9.89329
▁crime	-9.89329
▁collapse	-9.89329
▁chainsaw	-9.89329
▁teeth	-9.89329
▁protect	-9.8933
▁dynamite	-9.8933
▁girlfriend	-9.89331
▁children	-9.89332
▁trapped	-9.89333
▁fence	-9.89333
▁Brain	-9.89335
▁pair	-9.89335
▁space	-9.8934
Women	-9.89342
▁cash	-9.89344
▁speed	-9.89344
▁sack	-9.89346
Hook	-9.8935
▁promise	-9.89358
▁pole	-9.89361
▁glad	-9.89369
▁bound	-9.89381
▁platinum	-9.89411
▁wave	-9.89412
▁Okay	-9.89416
▁everyday	-9.89418
▁retarded	-9.89428
▁Find	-9.89449
▁mud	-9.89458
▁iller	-9.89462
▁Out	-9.89471
▁notice	-9.89496
▁sexy	-9.89564
▁ma	-9.89628
▁weak	-9.89649
ass	-9.89744
▁Bitches	-9.89765
▁Ho	-9.89784
▁Ask	-9.89878
uit	-9.89895
▁[*	-9.89901
▁happening	-9.89902
▁juice	-9.8996
▁sucker	-9.90003
▁bother	-9.90158
▁Mad	-9.90331
ist	-9.90716
▁watching	-9.91154
ually	-9.91309
cha	-9.91333
▁ink	-9.91468
▁boys	-9.92345
▁holding	-9.9238
▁rape	-9.92418
▁idea	-9.92457
▁Los	-9.92575
ge	-9.92671
▁n	-9.92837
onkey	-9.92844
nother	-9.93166
at	-9.93241
nto	-9.93429
year	-9.94135
▁problems	-9.94285
▁screw	-9.94381
▁cr	-9.94673
▁pistol	-9.94711
▁pictures	-9.94717
▁Ice	-9.94723
▁scene	-9.94758
▁pocket	-9.94861
▁arms	-9.94895
▁tube	-9.9493
pin	-9.94953
)...	-9.95307
id	-9.95543
4	-9.95569
▁Hop	-9.95669
▁stare	-9.96023
▁ways	-9.96194
▁table	-9.96211
▁walls	-9.9623
Y	-9.96411
fuck	-9.96479
▁era	-9.9659
gging	-9.96642
▁plane	-9.96727
▁needle	-9.9678
▁color	-9.96868
Royce	-9.96931
Uh	-9.96999
Nate	-9.96999
Slim	-9.97007
anything	-9.97014
▁build	-9.97027
▁draw	-9.97058
▁spill	-9.97077
▁bang	-9.9719
▁storm	-9.97211
▁bear	-9.97379
My	-9.97397
▁bath	-9.97432
▁rewind	-9.97509
▁chew	-9.97512
▁weird	-9.97547
▁mornin	-9.97613
K	-9.97634
▁worst	-9.97661
▁Music	-9.97661
▁Satan	-9.97661
▁pencil	-9.97661
▁Smoke	-9.97662
▁poison	-9.97662
▁slash	-9.97663
▁squeeze	-9.97663
▁complete	-9.97663
▁strapped	-9.97664
▁dawn	-9.97664
▁puke	-9.97664
▁edge	-9.97665
▁basement	-9.97665
▁doctor	-9.97667
▁label	-9.97672
▁crumble	-9.97676
▁toilet	-9.97691
▁shock	-9.97691
▁Hollywood	-9.97694
▁Michael	-9.97694
▁Blood	-9.97694
▁fifth	-9.97697
▁grass	-9.97698
▁rappin	-9.97707
▁moon	-9.97718
▁spend	-9.97729
▁crib	-9.97738
▁Word	-9.97741
▁slit	-9.97749
▁switch	-9.97752
▁rough	-9.97755
▁eh	-9.97782
▁Head	-9.97819
▁row	-9.97831
▁Lil	-9.97837
▁agree	-9.97842
▁Any	-9.97873
▁soft	-9.97909
▁harm	-9.9792
▁waste	-9.97944
▁weight	-9.97986
▁cover	-9.97989
▁Long	-9.98001
▁haha	-9.98003
ile	-9.98014
w	-9.98028
▁page	-9.9812
▁acid	-9.9814
Don	-9.98161
▁mini	-9.98171
▁pushed	-9.98402
▁sins	-9.98436
▁burning	-9.9849
▁strip	-9.98564
▁Denaun	-9.98588
▁shoulda	-9.98644
▁li	-9.98682
▁quite	-9.98734
▁jumped	-9.98834
▁sock	-9.99024
▁De	-9.99165
▁dollars	-9.99363
▁months	-9.99363
▁ate	-9.99587
▁less	-9.99681
▁May	-9.99683
▁spinnin	-9.99949
▁x	-10.0033
)[	-10.0038
etter	-10.0044
▁skills	-10.0074
▁Ya	-10.0082
of	-10.0107
▁pit	-10.0151
▁hated	-10.0152
ch	-10.0254
▁swing	-10.028
ck	-10.0283
ated	-10.0303
ble	-10.0304
▁headed	-10.0308
tion	-10.0315
Yah	-10.0318
▁brick	-10.0344
▁Suck	-10.0355
▁bow	-10.036
▁known	-10.0364
▁sounds	-10.037
▁steps	-10.0379
ba	-10.0395
▁fist	-10.0398
▁Thinkin	-10.0399
▁cloud	-10.0415
▁book	-10.0428
▁brains	-10.0476
▁sea	-10.0497
▁shoulder	-10.0529
▁blows	-10.0566
▁hour	-10.0586
▁Sha	-10.0595
ger	-10.0609
50	-10.0609
back	-10.0609
But	-10.0611
▁blunt	-10.0632
▁possess	-10.0635
▁stress	-10.0638
▁dump	-10.064
▁ice	-10.064
▁finish	-10.0641
▁jack	-10.0642
▁lift	-10.0655
▁honest	-10.0655
EM	-10.0657
▁thick	-10.0663
▁mental	-10.0664
▁order	-10.0664
▁Stan	-10.0666
▁crawl	-10.067
▁poppin	-10.0671
▁psycho	-10.0675
▁Kamikaze	-10.0675
▁attempt	-10.0675
▁autograph	-10.0675
▁infinite	-10.0675
▁renegade	-10.0675
▁spread	-10.0675
▁target	-10.0675
▁below	-10.0675
▁entire	-10.0675
▁Always	-10.0675
▁Sheeran	-10.0675
▁genius	-10.0675
▁gift	-10.0675
▁tragic	-10.0675
zerk	-10.0675
▁plot	-10.0675
▁court	-10.0675
▁hungry	-10.0675
▁calm	-10.0675
▁tight	-10.0675
▁conscience	-10.0676
▁grew	-10.0676
▁chair	-10.0676
▁Down	-10.0676
▁represent	-10.0676
▁5'9"	-10.0676
▁dip	-10.0676
▁controversy	-10.0676
▁Paul	-10.0676
▁couch	-10.0677
▁snatch	-10.0677
▁25	-10.0677
▁villain	-10.0677
▁bedroom	-10.0677
▁himself	-10.0677
▁lust	-10.0678
▁movie	-10.0678
▁circle	-10.0679
▁route	-10.0679
▁regular	-10.0679
▁heavy	-10.068
▁careful	-10.068
▁Up	-10.068
▁forgive	-10.0681
▁fifty	-10.0682
▁Cut	-10.0682
▁cost	-10.0682
▁Grey	-10.0683
▁maniac	-10.0685
▁rope	-10.0685
▁rage	-10.0686
▁Bad	-10.0687
▁dreams	-10.069
▁zero	-10.0692
▁main	-10.0692
▁Came	-10.0693
Ed	-10.0702
▁born	-10.0702
▁van	-10.0702
ter	-10.0707
▁locked	-10.071
▁backwards	-10.0713
▁except	-10.0715
lar	-10.0721
▁Beat	-10.0723
▁sight	-10.0725
▁gu	-10.0756
▁Talk	-10.0763
▁thrown	-10.0791
▁evening	-10.0809
▁bananas	-10.0812
ling	-10.0813
▁pot	-10.0814
▁grown	-10.0817
▁cards	-10.0836
▁sucked	-10.0841
line	-10.0843
oke	-10.0849
▁date	-10.085
▁changed	-10.0856
▁clowns	-10.0863
▁sub	-10.0886
▁Ch	-10.0896
▁King	-10.0904
▁warm	-10.0907
uck	-10.0938
▁player	-10.0961
▁lines	-10.0962
▁bump	-10.103
▁ears	-10.1041
▁gate	-10.1064
nd	-10.108
king	-10.1097
▁bye	-10.1116
ii	-10.1141
▁feelings	-10.1143
▁lock	-10.1173
.)	-10.1185
▁movin	-10.1248
▁pad	-10.1288
▁taken	-10.1331
▁con	-10.1332
▁mark	-10.1336
▁lap	-10.1344
▁repeat	-10.1349
9	-10.1358
▁bags	-10.1361
▁station	-10.1382
▁sn	-10.1388
der	-10.1403
▁shows	-10.1417
na	-10.1417
▁bullet	-10.1423
▁blade	-10.1427
▁Ri	-10.1429
▁tracks	-10.143
▁stink	-10.1433
▁pan	-10.1434
▁Saw	-10.1447
me	-10.1467
bble	-10.1469
▁flat	-10.1473
▁lip	-10.1483
▁charge	-10.1513
▁By	-10.1536
▁voices	-10.1536
▁hittin	-10.1552
ance	-10.1561
▁suit	-10.1568
▁calling	-10.1575
▁slip	-10.1585
We	-10.1597
▁grin	-10.1603
Bizarre	-10.1608
Nah	-10.1609
Come	-10.161
This	-10.161
▁bleed	-10.1611
Get	-10.1611
▁whe	-10.1626
▁press	-10.164
▁stomp	-10.164
▁drag	-10.1665
▁hits	-10.1673
▁consider	-10.1675
▁hah	-10.1675
Intro	-10.1675
▁certain	-10.1675
▁kept	-10.1675
▁lonely	-10.1675
▁respond	-10.1675
▁skull	-10.1675
▁twelve	-10.1675
▁nervous	-10.1675
▁river	-10.1675
▁studio	-10.1675
▁third	-10.1675
▁carpet	-10.1675
▁opposite	-10.1675
▁priva	-10.1675
▁seduction	-10.1675
▁difference	-10.1675
▁opportunity	-10.1675
▁clue	-10.1675
▁Blow	-10.1675
▁Point	-10.1675
▁condom	-10.1675
▁secret	-10.1675
▁elevator	-10.1676
▁tank	-10.1676
▁season	-10.1676
▁bathroom	-10.1676
▁sneak	-10.1676
▁sister	-10.1676
▁bought	-10.1676
▁image	-10.1676
▁flipped	-10.1676
▁Kelly	-10.1676
▁Jim	-10.1676
▁drove	-10.1676
▁Jason	-10.1676
▁decide	-10.1676
▁Ready	-10.1676
▁cunt	-10.1676
▁path	-10.1677
▁Eric	-10.1677
▁cuz	-10.1678
▁alarm	-10.1678
▁Mike	-10.1678
▁stepdad	-10.1678
▁pink	-10.1679
▁level	-10.1679
▁mood	-10.1679
▁Could	-10.1679
▁position	-10.1679
▁percent	-10.1679
▁LP	-10.168
▁sand	-10.1681
▁married	-10.1681
▁boss	-10.1682
▁list	-10.1683
▁DJ	-10.1683
▁pile	-10.1684
▁gray	-10.1687
▁mentally	-10.1689
▁stronger	-10.1689
▁Walk	-10.169
▁grabbed	-10.1694
▁proof	-10.1695
▁town	-10.1705
▁thin	-10.1708
▁strap	-10.1708
illa	-10.1712
▁Ooh	-10.1721
▁pullin	-10.1722
where	-10.1722
anny	-10.1723
▁fate	-10.1728
▁Day	-10.173
▁mall	-10.1741
▁Singing	-10.1743
time	-10.1748
▁Americans	-10.1748
▁raised	-10.1752
ize	-10.1761
▁Chris	-10.1764
▁views	-10.1783
▁learned	-10.1785
hello	-10.182
▁needs	-10.1825
▁force	-10.1826
▁missing	-10.1831
▁knocked	-10.1837
▁clos	-10.1864
▁working	-10.1878
▁cat	-10.1881
2]	-10.1909
as	-10.1921
▁singing	-10.1929
▁using	-10.194
ted	-10.1962
▁Fir	-10.1963
ier	-10.1966
▁grip	-10.1987
▁Bu	-10.1993
ir	-10.2039
▁lies	-10.2078
▁poke	-10.2086
▁Love	-10.2091
▁upon	-10.2092
ca	-10.2109
▁na	-10.2113
▁Bod	-10.2124
ze	-10.2124
▁Las	-10.2128
▁rep	-10.2141
ery	-10.2143
▁Sett	-10.2154
▁Kid	-10.2168
▁caused	-10.2175
▁Fu	-10.2176
▁nights	-10.2202
ler	-10.2209
ton	-10.223
▁faggots	-10.2253
▁Drop	-10.2275
▁ski	-10.2278
▁g	-10.2279
▁Dum	-10.229
den	-10.2308
▁youth	-10.2342
▁simple	-10.2349
▁sh	-10.2356
▁fingers	-10.237
▁ber	-10.2391
▁Shu	-10.2411
▁bird	-10.2445
▁rate	-10.245
▁citizen	-10.2464
▁bo	-10.2483
▁band	-10.2485
▁nightmare	-10.2494
▁stars	-10.2504
▁jam	-10.2517
▁jaw	-10.2524
j	-10.2526
▁Her	-10.2526
kin	-10.253
night	-10.253
▁mis	-10.2543
▁concert	-10.2543
▁windows	-10.2546
▁Pro	-10.2552
▁knowin	-10.2559
art	-10.2569
▁bombs	-10.2606
▁fa	-10.2633
come	-10.2634
box	-10.2634
ahh	-10.2674
▁buzz	-10.2681
▁tool	-10.2698
Rihanna	-10.2707
▁note	-10.2709
Kuniva	-10.2711
ke	-10.2713
Obie	-10.2719
ions	-10.2721
Pac	-10.2723
shit	-10.2725
don	-10.2747
▁vi	-10.2747
▁twist	-10.2753
but	-10.276
son	-10.276
▁demo	-10.2764
▁fair	-10.2769
▁relax	-10.2775
▁attract	-10.2786
▁McDonald	-10.2786
▁Michigan	-10.2786
▁Perhaps	-10.2786
▁President	-10.2786
▁Uncle	-10.2786
▁adrenaline	-10.2786
▁bread	-10.2786
▁circus	-10.2786
▁competition	-10.2786
▁ghetto	-10.2786
▁tantrum	-10.2786
▁vodka	-10.2786
▁remorse	-10.2786
▁purpose	-10.2786
▁steel	-10.2786
▁remain	-10.2786
▁collar	-10.2786
▁pressure	-10.2786
▁Doody	-10.2786
▁food	-10.2786
▁quiet	-10.2787
▁miracle	-10.2787
▁squash	-10.2787
▁bridge	-10.2787
▁bucket	-10.2787
▁clever	-10.2787
▁grade	-10.2787
▁underground	-10.2787
▁Shoot	-10.2787
▁snow	-10.2787
▁castle	-10.2787
▁plus	-10.2787
▁Show	-10.2787
▁conversation	-10.2787
▁near	-10.2787
▁dinner	-10.2787
▁fluid	-10.2787
▁pride	-10.2787
▁brake	-10.2787
▁violent	-10.2787
▁Under	-10.2788
▁kidding	-10.2788
SH	-10.2788
▁struck	-10.2788
▁reaction	-10.2788
▁Play	-10.2788
▁future	-10.2788
▁crown	-10.2788
▁mosh	-10.2788
▁attitude	-10.2788
▁fish	-10.2789
▁camera	-10.2789
▁Kiss	-10.2789
▁Inside	-10.279
▁NO	-10.279
▁Everyone	-10.279
▁Nothing	-10.2791
▁Kanye	-10.2791
▁Follow	-10.2791
▁brand	-10.2791
▁okay	-10.2791
▁began	-10.2792
▁im	-10.2792
ryna	-10.2792
▁buried	-10.2792
▁flag	-10.2792
▁suicide	-10.2792
▁Mommy	-10.2793
▁shop	-10.2795
...[	-10.2796
▁busy	-10.2797
▁Fame	-10.2798
▁predict	-10.2798
▁teacher	-10.2798
▁lucky	-10.2799
▁sake	-10.2799
▁TV	-10.2799
▁tries	-10.28
▁AK	-10.2804
▁Reeves	-10.2804
▁sting	-10.281
▁rana	-10.2811
▁Nas	-10.2811
▁upside	-10.2815
▁vision	-10.2815
▁race	-10.2817
▁media	-10.2818
ext	-10.2819
▁fold	-10.2826
▁meanie	-10.2827
▁eighty	-10.283
▁shootin	-10.2836
▁hugs	-10.2839
▁yes	-10.2843
ship	-10.2846
ace	-10.2847
▁lately	-10.285
▁allow	-10.2856
▁wounds	-10.2864
▁rubbers	-10.2865
▁cake	-10.2867
▁bucks	-10.2868
▁cleaning	-10.2869
ue	-10.2871
▁speaking	-10.2875
woo	-10.2887
▁breathing	-10.2896
Sing	-10.2899
▁toward	-10.2917
▁endings	-10.2927
▁Bag	-10.2935
▁asses	-10.2938
▁hunt	-10.2939
▁forth	-10.2951
▁hero	-10.2992
▁Chorus	-10.3001
▁blown	-10.3009
▁Th	-10.301
▁meds	-10.3018
▁grind	-10.303
▁ba	-10.3052
▁sleeping	-10.3066
▁Poo	-10.3081
▁dare	-10.3081
▁pulled	-10.3099
▁sat	-10.31
nja	-10.3135
▁ah	-10.3156
aw	-10.3156
▁l	-10.3172
▁pr	-10.3179
▁Gu	-10.3232
▁simpl	-10.3244
▁dur	-10.3261
ither	-10.3275
▁Fe	-10.3295
rd	-10.3302
▁beg	-10.331
▁ow	-10.3342
oo	-10.3367
▁keys	-10.3405
▁bars	-10.3406
▁introduce	-10.3413
ping	-10.3425
▁ago	-10.3444
H	-10.345
stood	-10.3456
▁Real	-10.3464
?!	-10.3484
▁tooth	-10.3497
▁daughters	-10.3504
▁soldiers	-10.3537
▁Stop	-10.3603
▁drops	-10.3617
▁ju	-10.3622
obby	-10.3636
▁los	-10.3681
unk	-10.3688
▁tail	-10.3691
▁relationship	-10.3707
fully	-10.3715
▁accident	-10.3721
▁clown	-10.3736
▁stain	-10.374
▁fag	-10.376
▁Thank	-10.3775
ten	-10.3776
▁month	-10.3781
▁dollar	-10.3781
▁stone	-10.3784
▁cars	-10.3799
▁Car	-10.38
▁wood	-10.3805
▁palm	-10.3805
▁Po	-10.3807
▁tru	-10.3826
2	-10.3834
▁budge	-10.3854
▁bro	-10.3867
nder	-10.3879
▁join	-10.3903
▁drown	-10.3925
▁crash	-10.3926
▁shoe	-10.3938
J	-10.3957
Woo	-10.3961
Kyu	-10.3961
his	-10.3962
Unit	-10.3966
word	-10.3967
stand	-10.3968
▁nap	-10.3969
Look	-10.3971
Shady	-10.3971
When	-10.3971
Let	-10.3972
use	-10.3972
And	-10.3975
▁search	-10.3985
▁skip	-10.3986
▁seeing	-10.3989
killed	-10.399
▁ver	-10.3991
▁Aww	-10.3991
▁guard	-10.3993
boom	-10.3996
▁smash	-10.4
that	-10.4003
ney	-10.4007
Well	-10.4009
▁launch	-10.4011
dah	-10.4014
▁offend	-10.4016
▁tick	-10.4023
▁strangle	-10.403
▁leavin	-10.4031
▁horn	-10.4034
▁patience	-10.4036
Pink	-10.4036
▁address	-10.4036
▁ambulance	-10.4036
▁apologies	-10.4036
▁britches	-10.4036
▁chapter	-10.4036
▁convince	-10.4036
▁dawg	-10.4036
▁deserve	-10.4036
▁diamond	-10.4036
▁enemies	-10.4036
▁flesh	-10.4036
▁float	-10.4036
▁lesbian	-10.4036
▁syrup	-10.4036
▁vagina	-10.4036
▁Shove	-10.4036
▁gentlemen	-10.4036
▁sorrow	-10.4036
▁cheap	-10.4036
▁nasty	-10.4036
▁ugly	-10.4036
▁Sunday	-10.4036
▁pregnant	-10.4036
▁report	-10.4036
▁thunder	-10.4036
▁above	-10.4036
▁explode	-10.4036
▁easi	-10.4036
Outro	-10.4036
▁Pray	-10.4036
Nurse	-10.4036
▁proceed	-10.4036
▁Heaven	-10.4036
▁plastic	-10.4036
▁frozen	-10.4036
▁flee	-10.4036
▁reckless	-10.4037
▁legend	-10.4037
▁multi	-10.4037
▁babies	-10.4037
▁giant	-10.4037
▁price	-10.4037
▁rotten	-10.4037
▁favor	-10.4037
▁Something	-10.4037
▁cheese	-10.4037
▁grasp	-10.4037
▁Slap	-10.4037
▁lunch	-10.4037
▁welcome	-10.4037
▁yellow	-10.4037
▁sentence	-10.4037
▁mask	-10.4037
▁definitely	-10.4037
▁somehow	-10.4037
▁lack	-10.4037
▁plain	-10.4037
▁Money	-10.4037
▁bank	-10.4037
▁sheep	-10.4038
▁Crazy	-10.4038
▁momentum	-10.4038
▁shotgun	-10.4038
▁large	-10.4038
▁settle	-10.4038
▁message	-10.4038
▁raw	-10.4038
▁country	-10.4038
▁bash	-10.4038
▁rack	-10.4039
slurp	-10.4039
▁adore	-10.404
▁lightning	-10.404
▁scary	-10.404
▁belt	-10.404
▁Excuse	-10.4042
▁dancing	-10.4042
▁basket	-10.4042
▁Stick	-10.4042
▁Nike	-10.4043
▁Rick	-10.4043
▁Henny	-10.4043
▁driving	-10.4043
▁strange	-10.4044
▁lifetime	-10.4045
▁Over	-10.4047
▁wire	-10.4048
▁Motherfucker	-10.4049
▁somewhere	-10.405
▁warn	-10.4051
▁Help	-10.4051
▁Van	-10.4051
▁office	-10.4051
▁lying	-10.4052
▁works	-10.4056
▁Ayo	-10.4057
▁tempt	-10.4059
▁candy	-10.406
▁goose	-10.406
▁counter	-10.4062
▁itself	-10.4063
▁gym	-10.4064
▁coat	-10.4066
▁mail	-10.4067
▁center	-10.4071
▁cuss	-10.4079
▁stomped	-10.4081
▁earn	-10.4086
▁Off	-10.4086
▁riding	-10.4088
▁Drugs	-10.409
eedle	-10.4093
▁trade	-10.4094
▁bully	-10.4095
▁scrap	-10.4096
▁washed	-10.4114
▁eatin	-10.4123
▁females	-10.4125
▁waitin	-10.4128
▁yelling	-10.4128
▁bent	-10.4136
▁smil	-10.4141
▁musta	-10.4142
yo	-10.4145
▁blowin	-10.4151
▁tits	-10.416
▁hun	-10.4165
▁rid	-10.4171
▁Ta	-10.4172
▁Face	-10.4174
▁surviv	-10.4177
▁alike	-10.418
iff	-10.4182
▁MCs	-10.4183
ume	-10.419
RL	-10.419
▁wide	-10.4193
▁weather	-10.4195
▁demons	-10.4196
some	-10.4199
▁Al	-10.4207
ohhh	-10.4212
▁Spen	-10.422
▁miles	-10.4234
ary	-10.4237
▁curtains	-10.4238
ike	-10.4238
▁flying	-10.4251
▁tri	-10.4256
▁rolling	-10.4257
▁mighty	-10.4267
haha	-10.4277
Ame	-10.4282
▁huge	-10.4283
▁action	-10.43
▁shooting	-10.4301
▁slapp	-10.4312
▁wi	-10.4314
here	-10.4328
▁Leav	-10.4333
▁U	-10.4338
ny	-10.4348
▁flu	-10.4359
▁Sit	-10.4361
..)	-10.4365
land	-10.4367
▁lu	-10.437
▁hid	-10.4371
per	-10.4377
gue	-10.439
not	-10.4399
▁fired	-10.441
ingle	-10.4412
▁clouds	-10.4413
▁cha	-10.4432
▁eating	-10.4434
▁bill	-10.4439
gotten	-10.4446
topher	-10.4448
▁plann	-10.4453
▁fo	-10.4454
tepdad	-10.4461
▁asking	-10.4469
pe	-10.4512
▁rec	-10.4524
▁letters	-10.4528
▁Coup	-10.4539
▁shove	-10.4545
so	-10.456
by	-10.4579
ri	-10.4585
▁turning	-10.459
▁pa	-10.4597
▁givin	-10.4598
▁Psych	-10.4631
▁vent	-10.4638
laughing	-10.4652
il	-10.4669
▁tour	-10.4669
▁pin	-10.4673
ow	-10.4679
lick	-10.4692
ber	-10.4704
▁raped	-10.4715
▁serv	-10.4735
▁albums	-10.4747
Sorry	-10.4748
▁Tri	-10.4774
rap	-10.4803
▁rings	-10.4805
lly	-10.4808
▁Won	-10.4831
▁owe	-10.4834
aa	-10.484
ga	-10.4849
▁Fucking	-10.4929
room	-10.4931
▁boo	-10.4933
he	-10.4934
▁Set	-10.4948
▁lyric	-10.4951
ang	-10.4967
▁bounce	-10.4969
op	-10.499
ak	-10.4992
▁Use	-10.4993
▁Cla	-10.5003
▁bigge	-10.5009
▁plans	-10.5026
cher	-10.5038
▁knee	-10.5044
till	-10.5046
▁doors	-10.5058
▁pig	-10.5066
▁wa	-10.5073
Ha	-10.5074
▁stopp	-10.5112
▁k	-10.5128
▁disguise	-10.5137
▁ghost	-10.5137
tic	-10.5141
red	-10.5154
▁sword	-10.516
▁animal	-10.5172
ro	-10.5177
▁disease	-10.5185
▁cheek	-10.5192
▁broad	-10.5192
▁bastard	-10.5193
▁pound	-10.5194
▁magazine	-10.5202
▁anyway	-10.521
▁regret	-10.5212
-1	-10.5229
▁leg	-10.523
▁lighter	-10.5231
▁Hear	-10.5251
sta	-10.5277
▁Sayin	-10.528
▁Artis	-10.5281
lmost	-10.5289
▁vol	-10.529
▁bottles	-10.5297
3	-10.5318
tally	-10.5318
▁Ju	-10.5327
5	-10.5333
nger	-10.5344
▁sip	-10.5344
▁gra	-10.5351
▁Den	-10.5358
▁wrap	-10.5368
Hi	-10.5371
Fore	-10.5375
Go	-10.5375
Sky	-10.539
Snoop	-10.5395
scratched	-10.5395
book	-10.5397
Damn	-10.5398
Proof	-10.5399
Shit	-10.5399
Swifty	-10.54
▁drama	-10.5401
▁lean	-10.5401
▁horse	-10.5404
boy	-10.5404
Man	-10.5413
ory	-10.5418
ence	-10.5419
Hell	-10.542
ip	-10.5421
▁return	-10.5423
▁moms	-10.5431
▁torture	-10.5436
▁Jealous	-10.5448
▁law	-10.5448
▁luck	-10.545
▁batter	-10.545
▁bull	-10.5455
▁posse	-10.5459
▁runnin	-10.546
▁ignor	-10.546
▁cell	-10.5461
▁Marsh	-10.5461
▁grand	-10.5461
ix	-10.5462
▁Nothin	-10.5464
▁AIDS	-10.5465
▁Cadillac	-10.5465
▁Jessica	-10.5465
▁Rodrigues	-10.5465
▁Seduction	-10.5465
▁beyond	-10.5465
▁develop	-10.5465
▁energy	-10.5465
▁episode	-10.5465
▁kitchen	-10.5465
▁offensive	-10.5465
▁pussies	-10.5465
▁razor	-10.5465
▁revenue	-10.5465
▁ridiculous	-10.5465
▁sleeve	-10.5465
▁slept	-10.5465
▁tattoo	-10.5465
▁Straight	-10.5465
▁lamb	-10.5465
▁Xanax	-10.5465
▁awesome	-10.5465
▁funeral	-10.5465
▁Smash	-10.5465
▁violence	-10.5465
▁drum	-10.5465
▁garbage	-10.5465
▁surround	-10.5465
▁flew	-10.5465
▁product	-10.5465
▁relapse	-10.5465
▁microphone	-10.5465
▁Louis	-10.5465
▁Three	-10.5465
▁argue	-10.5465
▁strut	-10.5465
▁combination	-10.5465
▁stiff	-10.5465
▁panties	-10.5465
▁World	-10.5465
▁Monday	-10.5465
▁Charles	-10.5465
▁Tylenol	-10.5465
▁Rule	-10.5465
septic	-10.5465
▁Biggie	-10.5465
▁sharp	-10.5465
▁intent	-10.5465
▁shaking	-10.5466
▁writing	-10.5466
▁fought	-10.5466
Slaughterhouse	-10.5466
▁trigger	-10.5466
▁sink	-10.5466
▁abortion	-10.5466
▁health	-10.5466
▁metaphor	-10.5466
▁pillow	-10.5466
▁collect	-10.5466
▁prime	-10.5466
▁sales	-10.5467
▁spent	-10.5467
▁seduce	-10.5467
▁grace	-10.5467
▁Ray	-10.5467
▁heaven	-10.5467
▁Bru	-10.5467
▁crunk	-10.5467
▁lake	-10.5467
▁slaughter	-10.5467
▁poor	-10.5468
▁trap	-10.5468
▁nurse	-10.5468
▁Jade	-10.5469
▁sittin	-10.5469
▁separate	-10.5469
▁dear	-10.5469
▁model	-10.5469
▁snare	-10.5469
▁Bring	-10.547
▁compare	-10.547
▁mansion	-10.5471
▁hotter	-10.5471
▁responsible	-10.5471
▁victim	-10.5471
▁Murder	-10.5471
▁bitter	-10.5471
▁birthday	-10.5471
▁background	-10.5472
▁wow	-10.5472
▁sew	-10.5472
▁cycle	-10.5472
▁awful	-10.5473
▁click	-10.5474
Venom	-10.5475
▁triple	-10.5475
▁taught	-10.5476
▁Swift	-10.5476
▁reality	-10.5476
mo	-10.5476
▁Screaming	-10.5476
▁uptight	-10.5476
▁Angel	-10.5477
rew	-10.5477
▁Drake	-10.5478
istic	-10.5478
▁imagine	-10.5479
▁Erica	-10.5479
▁amazing	-10.5481
▁passion	-10.5481
▁Godzilla	-10.5481
▁chorus	-10.5481
▁Police	-10.5481
▁Buffa	-10.5482
▁vest	-10.5482
▁hopeless	-10.5482
▁Other	-10.5483
▁pool	-10.5483
▁junk	-10.5483
turn	-10.5484
▁yard	-10.5486
▁avoid	-10.5487
▁jeans	-10.5488
▁pump	-10.549
▁beast	-10.5491
▁lotion	-10.5491
▁seven	-10.5491
▁drawers	-10.5491
tra	-10.5492
▁framed	-10.5492
▁Want	-10.5494
▁practical	-10.5495
▁connect	-10.5496
▁pew	-10.5497
▁stopped	-10.5497
▁Hip	-10.55
▁Cap	-10.5501
▁Watch	-10.5504
▁bass	-10.5508
▁Check	-10.5509
▁pace	-10.5512
▁Doctor	-10.5515
▁button	-10.5515
▁doc	-10.552
▁slowly	-10.552
▁drowning	-10.5522
▁belly	-10.5523
▁Than	-10.5523
▁stretch	-10.5523
▁string	-10.5524
▁upper	-10.5526
▁choked	-10.5527
▁pinch	-10.5527
▁constant	-10.5528
▁Eat	-10.5528
▁??	-10.5533
▁Snoop	-10.5536
▁Lin	-10.5537
▁potato	-10.554
▁wine	-10.5542
▁puff	-10.5545
▁stuffed	-10.5545
▁UP	-10.5545
▁splash	-10.5548
▁text	-10.5549
▁Unit	-10.555
▁building	-10.5553
▁Roll	-10.5558
▁dissed	-10.5562
▁aight	-10.5562
▁salt	-10.5566
▁butter	-10.5568
▁Vers	-10.5577
▁card	-10.5578
▁Young	-10.5581
▁Does	-10.5587
▁tall	-10.5588
▁packed	-10.5591
▁Hold	-10.5592
▁Dee	-10.5598
▁laughed	-10.5602
▁fade	-10.5622
▁wearing	-10.5623
▁Hello	-10.5623
joi	-10.5627
▁missed	-10.5635
▁wasted	-10.5635
▁joint	-10.5639
▁West	-10.5646
apture	-10.5646
▁aside	-10.5652
▁blo	-10.5655
▁gum	-10.5665
▁usual	-10.5673
bag	-10.5688
ian	-10.57
nch	-10.5721
ture	-10.5728
▁magazines	-10.5735
▁planet	-10.5736
▁tellin	-10.5738
ward	-10.5742
een	-10.5752
▁stones	-10.5777
ped	-10.5788
▁meat	-10.5801
tuck	-10.5805
▁sever	-10.5806
ose	-10.5806
▁Christ	-10.5806
▁la	-10.5816
ifty	-10.5817
▁jaws	-10.582
ster	-10.5883
▁Kee	-10.5885
▁Ro	-10.5898
▁rob	-10.5912
▁shine	-10.5919
▁Hate	-10.5978
ught	-10.5978
bi	-10.598
urn	-10.5993
▁bone	-10.5995
Bye	-10.5998
▁beats	-10.6024
▁([	-10.6048
▁Mil	-10.6072
uz	-10.6084
▁personal	-10.6098
▁Bo	-10.6131
▁trees	-10.6166
▁flows	-10.6185
aking	-10.6211
vide	-10.6212
imme	-10.6238
▁swo	-10.625
▁pieces	-10.6252
▁jokes	-10.6253
air	-10.6262
▁ol	-10.6277
▁ham	-10.6292
▁appre	-10.631
idaz	-10.6367
▁hoppin	-10.6374
▁suppos	-10.6424
nt	-10.6436
▁non	-10.6444
swell	-10.6455
▁Bobb	-10.6492
ial	-10.6505
▁parts	-10.6545
et	-10.6564
▁di	-10.657
▁1:	-10.6588
▁shutt	-10.6604
ard	-10.6608
▁mu	-10.6608
▁mop	-10.6618
crew	-10.6622
dies	-10.6629
▁plant	-10.6629
ick	-10.6649
ddle	-10.6656
▁inter	-10.6677
▁Ga	-10.6721
IN	-10.6748
▁pl	-10.6751
Ah	-10.6757
ig	-10.6777
Mart	-10.6781
pose	-10.6781
▁system	-10.6805
▁ego	-10.6811
▁stunt	-10.6826
▁wrist	-10.6838
▁degree	-10.6838
▁dime	-10.6854
▁wheel	-10.6868
▁curtain	-10.6871
▁stoppin	-10.6875
▁banana	-10.6875
like	-10.6876
▁mics	-10.6879
▁egg	-10.6886
▁writer	-10.6887
▁flame	-10.6888
▁Pi	-10.6888
tain	-10.6889
▁mile	-10.6894
▁loser	-10.6909
▁Live	-10.6913
▁dia	-10.6914
▁ache	-10.6918
▁idiot	-10.692
lthough	-10.6924
▁cord	-10.6929
ching	-10.6948
▁actin	-10.6951
▁freeze	-10.6954
▁Fin	-10.6978
▁Bet	-10.6979
▁Though	-10.6989
▁tha	-10.6992
He	-10.7008
▁slam	-10.7015
▁honk	-10.7016
▁Bor	-10.7027
Eye	-10.7045
▁tap	-10.7051
Kill	-10.7051
Just	-10.7054
▁pour	-10.7057
board	-10.7061
freeze	-10.7061
▁gr	-10.7061
Bitch	-10.7062
Hop	-10.7063
wide	-10.7063
hard	-10.7064
Evil	-10.7064
Daddy	-10.7065
▁Lookin	-10.7066
Ooh	-10.7066
▁40	-10.7066
gs	-10.7069
She	-10.7071
▁Stomp	-10.7072
dict	-10.7074
▁perform	-10.7078
▁dry	-10.7079
nap	-10.7079
▁starin	-10.708
Kon	-10.708
▁mourn	-10.7081
laze	-10.7082
▁suckin	-10.7084
rained	-10.709
stick	-10.7091
▁relate	-10.7093
▁frame	-10.71
Here	-10.711
SS	-10.711
fold	-10.7112
▁iron	-10.7115
▁teach	-10.7115
▁Ken	-10.7118
▁gro	-10.7123
▁livin	-10.7129
▁alcohol	-10.7129
▁lyin	-10.713
▁risk	-10.713
ombie	-10.7131
▁Afraid	-10.7132
▁Bacardi	-10.7132
▁Banana	-10.7132
▁Elvis	-10.7132
▁Mariah	-10.7132
▁Marilyn	-10.7132
▁Meanwhile	-10.7132
▁Nintendo	-10.7132
▁Saddam	-10.7132
▁audience	-10.7132
▁awkward	-10.7132
▁church	-10.7132
▁clutch	-10.7132
▁drank	-10.7132
▁droppin	-10.7132
▁grenade	-10.7132
▁involved	-10.7132
▁nonsense	-10.7132
▁opinion	-10.7132
▁peanut	-10.7132
▁rehab	-10.7132
▁response	-10.7132
▁spawn	-10.7132
▁tunnel	-10.7132
▁underwear	-10.7132
▁vomit	-10.7132
▁Listen	-10.7132
▁complain	-10.7132
▁cream	-10.7132
▁impossible	-10.7132
▁speech	-10.7132
▁sweep	-10.7132
▁mountain	-10.7132
▁rinse	-10.7132
▁themselves	-10.7132
▁chump	-10.7132
▁steak	-10.7132
▁Britney	-10.7132
▁shrink	-10.7132
▁semi	-10.7132
▁Relax	-10.7132
▁descri	-10.7132
▁honor	-10.7132
▁important	-10.7132
▁sport	-10.7132
▁thumb	-10.7132
▁Kaniff	-10.7132
▁generation	-10.7132
▁Slut	-10.7132
▁shape	-10.7132
▁freestyle	-10.7132
▁outfit	-10.7132
si	-10.7132
▁annoy	-10.7132
▁thirty	-10.7132
▁spider	-10.7132
▁Blue	-10.7132
Ozzy	-10.7132
▁innocent	-10.7132
▁loyal	-10.7132
▁enemy	-10.7132
▁MTV	-10.7132
▁basically	-10.7132
▁abuse	-10.7132
▁Irv	-10.7132
▁revenge	-10.7132
▁strep	-10.7132
▁Homie	-10.7132
▁Santa	-10.7132
resher	-10.7132
▁destruction	-10.7132
▁Nickel	-10.7132
▁march	-10.7132
▁similar	-10.7132
▁milk	-10.7132
▁temper	-10.7132
▁hallway	-10.7132
▁ignorant	-10.7132
▁Cube	-10.7132
▁winning	-10.7133
▁original	-10.7133
▁freedom	-10.7133
▁repent	-10.7133
▁habit	-10.7133
▁situation	-10.7133
▁Park	-10.7133
▁limo	-10.7134
▁fellow	-10.7134
▁impress	-10.7135
▁dice	-10.7135
▁Grow	-10.7135
▁memory	-10.7135
▁carried	-10.7135
▁depressed	-10.7135
▁jet	-10.7136
▁enter	-10.7136
▁earth	-10.7136
▁pre	-10.7136
▁boost	-10.7136
▁inches	-10.7136
▁guilty	-10.7136
▁produce	-10.7136
▁spittin	-10.7137
▁rear	-10.7137
▁ashes	-10.7137
▁hotel	-10.7137
▁crank	-10.7137
▁moan	-10.7137
▁Manson	-10.7138
▁terrestrial	-10.7139
▁league	-10.7139
▁pilot	-10.7139
▁shady	-10.7139
▁fourth	-10.7139
▁venom	-10.7139
▁task	-10.7139
▁Sick	-10.7139
▁powder	-10.7139
▁Edna	-10.7139
▁hammer	-10.7139
▁End	-10.7139
▁humble	-10.7139
▁spike	-10.714
▁South	-10.714
▁throne	-10.714
▁Aight	-10.714
▁lane	-10.714
▁30	-10.714
▁Trick	-10.714
▁alcoholic	-10.714
elong	-10.7141
▁suddenly	-10.7141
▁sniff	-10.7141
▁rocket	-10.7141
▁fuse	-10.7142
▁Pass	-10.7142
▁Spit	-10.7142
▁history	-10.7143
▁stable	-10.7144
▁peep	-10.7145
▁defense	-10.7145
▁continue	-10.7146
▁beware	-10.7146
▁Said	-10.7147
▁Wish	-10.7147
▁Pain	-10.7147
▁Mary	-10.7148
▁operate	-10.715
▁pale	-10.715
▁shovel	-10.7152
▁assault	-10.7152
▁caged	-10.7152
▁2:	-10.7153
▁strike	-10.7153
▁bringin	-10.7153
▁flowers	-10.7154
elcome	-10.7155
▁chin	-10.7155
▁sellin	-10.7157
▁gal	-10.7157
▁scissors	-10.7159
▁boobs	-10.7159
▁shave	-10.716
▁Today	-10.7161
▁Gold	-10.7161
▁ruined	-10.7161
▁loaded	-10.7161
▁wicked	-10.7161
▁rapping	-10.7162
▁chubb	-10.7162
▁closest	-10.7163
▁serve	-10.7164
▁wolf	-10.7164
▁hyper	-10.7165
▁gang	-10.7166
▁Laugh	-10.7167
▁mommy	-10.7169
▁spitting	-10.7169
▁Ron	-10.717
▁Holy	-10.7171
▁bail	-10.7173
▁hollering	-10.7176
▁corny	-10.7179
▁Hope	-10.7181
▁toast	-10.7182
▁bus	-10.7182
4]	-10.7182
▁forward	-10.7183
▁panic	-10.7188
▁shorty	-10.7189
▁emerge	-10.7189
▁Fredd	-10.7189
▁poster	-10.7191
ack	-10.7201
▁sheet	-10.7203
▁board	-10.7204
▁skeletons	-10.7207
▁Pick	-10.7207
▁officers	-10.7208
dding	-10.7208
▁spine	-10.7208
][	-10.7208
▁murderin	-10.7211
▁hooker	-10.7212
▁bothered	-10.7213
▁hurtin	-10.7217
▁Break	-10.7219
▁[4	-10.722
▁Fa	-10.7223
▁Less	-10.7226
bit	-10.723
▁swinging	-10.7232
▁Lay	-10.7232
nny	-10.7234
▁Swifty	-10.7237
▁prayer	-10.7237
▁'9	-10.7238
om	-10.7238
▁El	-10.7244
▁solo	-10.7247
▁Miss	-10.7248
iate	-10.7252
▁du	-10.7253
▁heater	-10.7257
▁shitty	-10.7257
▁selling	-10.726
▁poet	-10.7262
▁Nick	-10.7267
▁stake	-10.7271
▁addicted	-10.7274
▁cocked	-10.7288
spirin	-10.7292
▁askin	-10.7296
▁holdin	-10.7303
▁torn	-10.7305
▁insults	-10.7305
▁literal	-10.7307
lights	-10.7308
▁pissing	-10.7312
▁slugs	-10.7314
▁bench	-10.7315
▁dwell	-10.7315
▁wage	-10.7316
▁hall	-10.7318
▁screamed	-10.7319
end	-10.7322
hopping	-10.7328
Mister	-10.7343
▁bra	-10.7345
▁award	-10.7354
▁vocals	-10.7355
▁rules	-10.7355
▁clips	-10.7356
nce	-10.7356
▁vs	-10.7357
▁emotions	-10.7362
▁pet	-10.7401
▁walkin	-10.7404
▁bodie	-10.741
unch	-10.741
laughter	-10.7414
▁beside	-10.7415
▁grave	-10.7424
▁Bit	-10.7433
![	-10.7436
▁owner	-10.7444
ol	-10.7445
▁team	-10.745
▁heal	-10.7454
▁anyways	-10.7456
▁closed	-10.7458
▁Bust	-10.746
▁Girls	-10.7464
▁lover	-10.7472
▁fl	-10.7487
▁Ric	-10.7487
▁chang	-10.7496
rn	-10.7508
HE	-10.7513
tter	-10.7517
▁Thanks	-10.7527
▁knocking	-10.7534
▁callin	-10.7563
▁Kids	-10.758
ff	-10.7585
▁fucker	-10.7608
light	-10.7614
ia	-10.7615
ag	-10.7627
▁grabb	-10.7643
irty	-10.7709
ho	-10.7737
▁losin	-10.7742
▁Fat	-10.7776
ac	-10.7837
▁cook	-10.7838
▁age	-10.7845
!!)	-10.7866
led	-10.7891
▁seed	-10.7913
▁mistakes	-10.7922
nna	-10.7925
uo	-10.7958
hi	-10.7968
▁mar	-10.8008
ave	-10.8019
ckey	-10.8049
▁fools	-10.8067
li	-10.8089
ear	-10.8123
▁thanks	-10.8136
▁Hai	-10.818
rs	-10.8193
Li	-10.8214
▁grows	-10.8226
▁inspire	-10.8229
▁skinn	-10.8236
▁Benz	-10.8245
▁rippin	-10.8255
▁gin	-10.8272
▁slide	-10.8288
▁mi	-10.832
ra	-10.833
▁ro	-10.8371
▁stro	-10.8389
▁holes	-10.8407
ron	-10.8435
U	-10.8453
▁Mic	-10.8454
her	-10.849
ring	-10.8521
▁slippin	-10.8525
▁Mi	-10.8533
▁loo	-10.8573
Fed	-10.8585
im	-10.8591
▁Haha	-10.8631
▁sluts	-10.8633
▁hidin	-10.8673
▁emotion	-10.8675
▁instrument	-10.869
▁spite	-10.8693
hole	-10.871
▁Tru	-10.8723
▁bin	-10.8729
nine	-10.8753
▁fe	-10.8766
ool	-10.8792
ple	-10.8799
▁ev	-10.8801
▁group	-10.8806
▁release	-10.8806
▁odd	-10.8807
boo	-10.8828
▁twirl	-10.8838
▁gangsta	-10.8839
▁artist	-10.884
▁wee	-10.8847
▁nerve	-10.8852
▁deck	-10.8856
▁Ay	-10.8856
val	-10.8862
▁eyeball	-10.8863
▁le	-10.8865
▁clip	-10.8865
▁rule	-10.8866
dad	-10.887
▁lung	-10.8872
▁brave	-10.8875
▁rat	-10.8879
▁grindin	-10.8883
▁vocal	-10.889
▁sort	-10.889
als	-10.8901
▁survive	-10.8903
ops	-10.892
ran	-10.8921
▁demon	-10.8925
?!?	-10.8931
▁Gre	-10.8947
▁Lad	-10.8959
▁hangin	-10.8961
lin	-10.8961
inner	-10.8964
▁restrain	-10.8967
▁kickin	-10.8967
thin	-10.8969
▁worship	-10.8975
▁coo	-10.8976
ked	-10.8978
▁threat	-10.8988
▁tug	-10.8994
sides	-10.8997
body	-10.9007
▁cuff	-10.9007
(	-10.9008
ulk	-10.9009
iest	-10.9021
ul	-10.9022
cut	-10.9032
▁Devil	-10.9034
Ko	-10.9042
bull	-10.9047
ell	-10.9047
pack	-10.9051
ris	-10.9052
pipe	-10.9052
evil	-10.9059
▁sir	-10.906
Doctor	-10.9061
People	-10.9064
Jay	-10.9065
point	-10.9065
Justin	-10.9066
Fack	-10.9066
So	-10.9066
That	-10.9067
shots	-10.9067
Where	-10.9068
▁sol	-10.9069
hood	-10.907
Did	-10.9071
▁entertain	-10.9072
case	-10.9072
▁melt	-10.9072
▁steer	-10.9074
big	-10.9075
▁holler	-10.9078
▁steal	-10.9078
ound	-10.9081
bully	-10.9081
ball	-10.9083
▁plead	-10.9083
▁cute	-10.9084
▁u	-10.9085
▁tech	-10.9087
▁cow	-10.9088
fuckin	-10.909
▁prison	-10.9093
uggling	-10.9095
▁disappear	-10.9095
▁slice	-10.9096
▁exist	-10.9098
▁prepare	-10.9103
side	-10.9104
▁base	-10.9106
bust	-10.9109
father	-10.911
▁ruin	-10.9111
ville	-10.9113
Mr	-10.9115
imp	-10.9117
▁trail	-10.9117
▁sudden	-10.912
▁bright	-10.9122
▁wick	-10.9122
▁swimmin	-10.9126
▁chasin	-10.9126
annibal	-10.9129
▁201	-10.913
▁bury	-10.9131
▁swim	-10.9131
▁disrespect	-10.9131
▁birth	-10.9131
nior	-10.9131
▁Bonnie	-10.9132
▁December	-10.9132
▁Hussein	-10.9132
▁Jigga	-10.9132
▁Missouri	-10.9132
▁Nicole	-10.9132
▁Reyez	-10.9132
▁Suddenly	-10.9132
▁absolute	-10.9132
▁advantage	-10.9132
▁alphabet	-10.9132
▁benefit	-10.9132
▁corpse	-10.9132
▁diabolical	-10.9132
▁dictionary	-10.9132
▁difficult	-10.9132
▁effect	-10.9132
▁enjoy	-10.9132
▁exchang	-10.9132
▁focus	-10.9132
▁further	-10.9132
▁gauge	-10.9132
▁gerbil	-10.9132
▁grudge	-10.9132
▁karma	-10.9132
▁mattress	-10.9132
▁mothafuck	-10.9132
▁puppet	-10.9132
▁relief	-10.9132
▁schizo	-10.9132
▁surprise	-10.9132
▁Dozen	-10.9132
▁channel	-10.9132
▁demented	-10.9132
▁equal	-10.9132
▁recogni	-10.9132
▁rescue	-10.9132
▁steady	-10.9132
▁strict	-10.9132
▁thief	-10.9132
Jessi	-10.9132
▁Source	-10.9132
▁stubborn	-10.9132
▁Nathan	-10.9132
▁ease	-10.9132
▁limit	-10.9132
▁dusk	-10.9132
▁liquid	-10.9132
▁rugged	-10.9132
▁crook	-10.9132
▁headache	-10.9132
▁blink	-10.9132
▁arsenal	-10.9132
▁envy	-10.9132
▁department	-10.9132
▁elephant	-10.9132
▁fantastic	-10.9132
▁mayhem	-10.9132
▁serious	-10.9132
▁desk	-10.9132
▁local	-10.9132
▁skunk	-10.9132
▁joking	-10.9132
▁Steve	-10.9132
▁lawyer	-10.9132
▁positive	-10.9132
▁shook	-10.9132
▁Holler	-10.9132
▁talent	-10.9132
▁greet	-10.9132
▁assassin	-10.9132
▁Vernon	-10.9132
▁arse	-10.9132
▁chaos	-10.9132
▁contact	-10.9132
▁equi	-10.9132
▁decision	-10.9132
▁Clint	-10.9132
▁extension	-10.9132
▁balloon	-10.9132
▁also	-10.9132
▁lipstick	-10.9132
▁purse	-10.9132
▁napkin	-10.9132
▁Bottom	-10.9132
▁wives	-10.9132
▁invite	-10.9132
▁boyfriend	-10.9132
▁massive	-10.9132
▁Ninety	-10.9132
▁lobby	-10.9132
▁struggling	-10.9132
▁burst	-10.9132
▁Donald	-10.9133
▁replace	-10.9133
Believe	-10.9133
▁laid	-10.9133
▁winner	-10.9133
▁flight	-10.9133
▁disaster	-10.9133
▁Mackey	-10.9133
▁York	-10.9133
▁flush	-10.9133
▁tele	-10.9133
▁booty	-10.9133
▁sugar	-10.9133
▁spoke	-10.9133
▁pitch	-10.9133
▁incredible	-10.9133
▁ceiling	-10.9134
▁seize	-10.9134
▁vibe	-10.9134
▁company	-10.9134
▁Mini	-10.9134
▁ecstasy	-10.9134
▁bruise	-10.9134
▁Brian	-10.9134
▁winter	-10.9135
▁offense	-10.9135
▁Toliver	-10.9135
▁nutty	-10.9135
▁fiend	-10.9135
▁wild	-10.9135
▁axe	-10.9136
▁brew	-10.9136
▁excited	-10.9136
▁thankful	-10.9136
▁penny	-10.9136
▁load	-10.9136
uu	-10.9137
▁racing	-10.9137
▁porno	-10.9137
▁boots	-10.9137
▁Bush	-10.9137
▁bush	-10.9137
▁shining	-10.9138
▁illest	-10.9138
▁serial	-10.9138
▁freeway	-10.9138
▁swimming	-10.9138
nough	-10.9139
▁jar	-10.9139
▁lash	-10.9139
▁silly	-10.9139
▁itchin	-10.9139
▁motivat	-10.914
▁visit	-10.914
▁bu	-10.914
▁Vietnam	-10.9141
▁zone	-10.9141
▁towel	-10.9141
▁FUCK	-10.9141
▁Fuzz	-10.9141
▁Spray	-10.9141
▁Eighty	-10.9141
▁fog	-10.9141
▁trench	-10.9141
▁Glock	-10.9141
▁addiction	-10.9141
▁whipped	-10.9142
▁High	-10.9143
▁amend	-10.9143
▁coward	-10.9143
▁grill	-10.9143
▁Hand	-10.9143
▁gather	-10.9144
▁Cu	-10.9144
▁ammo	-10.9144
▁tinted	-10.9144
▁coupe	-10.9144
▁dropping	-10.9145
iac	-10.9145
▁Todd	-10.9145
▁bla	-10.9145
▁Late	-10.9146
▁refuse	-10.9147
▁laced	-10.9148
▁wallow	-10.9148
▁jacket	-10.9148
▁score	-10.9149
▁chopped	-10.9149
▁Nope	-10.915
▁baw	-10.915
▁racist	-10.9151
▁Moz	-10.9151
▁hardest	-10.9152
▁Sean	-10.9152
▁Duck	-10.9154
▁tighter	-10.9154
▁Jealousy	-10.9156
▁battery	-10.9156
▁mission	-10.9157
▁clothing	-10.916
▁v	-10.916
▁metal	-10.9161
▁appeal	-10.9161
▁boxes	-10.9161
▁Need	-10.9162
▁East	-10.9162
▁tougher	-10.9163
▁yellin	-10.9165
▁funk	-10.9165
▁gloves	-10.9166
▁neighbors	-10.9166
▁lint	-10.9166
usan	-10.9166
▁disappeared	-10.9168
▁Air	-10.9169
▁launcher	-10.9175
▁halt	-10.9176
▁beer	-10.9179
▁average	-10.9179
▁dragg	-10.918
▁prepared	-10.918
▁Wow	-10.9181
▁copy	-10.9181
▁steam	-10.9182
▁bouncer	-10.9182
▁h	-10.9185
▁stickin	-10.9185
▁huff	-10.9187
▁messy	-10.9188
▁heck	-10.9188
▁smashed	-10.9193
fucking	-10.9195
▁bullie	-10.9203
▁po	-10.9203
▁whoever	-10.9206
▁train	-10.9209
▁fail	-10.921
▁Pop	-10.9212
Clean	-10.9214
▁Ran	-10.9214
▁warning	-10.9216
▁flyin	-10.9217
▁cocky	-10.9218
▁rollin	-10.9219
▁seal	-10.922
▁gotcha	-10.922
▁hills	-10.9223
▁veins	-10.9225
▁dramatic	-10.9225
▁Stand	-10.9234
▁fightin	-10.9243
▁crackin	-10.9245
▁dressed	-10.9251
ketch	-10.9252
dom	-10.9257
▁Flo	-10.9257
▁State	-10.9258
▁watchin	-10.9259
▁Cum	-10.9268
▁homies	-10.9272
same	-10.9275
▁Wall	-10.9275
▁shed	-10.9275
▁compos	-10.9276
▁juggl	-10.9276
▁Catch	-10.9277
lton	-10.928
▁Bar	-10.9285
▁beard	-10.9286
▁thugs	-10.929
▁dome	-10.9291
▁Ashe	-10.9292
aid	-10.9294
▁tires	-10.9295
▁tab	-10.93
▁killin	-10.9303
car	-10.9304
▁layers	-10.9305
▁Royce	-10.932
▁tunes	-10.9323
uick	-10.9325
▁whoop	-10.9325
▁sti	-10.9329
▁dissing	-10.9331
▁Joe	-10.9333
tw	-10.9335
▁speaker	-10.9335
eath	-10.9343
▁chips	-10.9348
▁videos	-10.9348
um	-10.9352
▁reminded	-10.9367
▁touched	-10.9367
▁forty	-10.9368
▁stabb	-10.9374
▁wished	-10.9377
▁web	-10.9377
hose	-10.9383
col	-10.9386
▁Fi	-10.9399
▁Mont	-10.9404
▁instant	-10.9408
▁lungs	-10.941
▁nod	-10.9415
pping	-10.943
▁inch	-10.9433
▁thang	-10.9435
appers	-10.9436
ade	-10.9443
▁Drivin	-10.9444
PR	-10.9445
▁Sa	-10.947
▁freezes	-10.9471
▁wheels	-10.9473
▁doubter	-10.948
▁beater	-10.9489
▁Has	-10.9491
vel	-10.9503
Dre	-10.9507
▁Sh	-10.9525
▁pounds	-10.9537
▁bastards	-10.9537
▁pigs	-10.9541
hic	-10.9547
AT	-10.9552
▁rude	-10.9558
pel	-10.9566
lay	-10.9574
mate	-10.9574
▁jumping	-10.9574
▁palms	-10.9601
▁buggin	-10.961
east	-10.9611
pa	-10.9619
▁th	-10.9623
▁beefing	-10.9631
▁Non	-10.9644
▁inhale	-10.9655
NG	-10.9662
▁tools	-10.9663
▁Andy	-10.9682
▁rocks	-10.9693
▁swam	-10.9718
un	-10.972
▁Carr	-10.9752
▁gates	-10.9757
▁Livin	-10.9784
▁Hal	-10.9785
▁gi	-10.9786
lary	-10.9788
▁cu	-10.9793
sis	-10.9795
over	-10.9801
▁rare	-10.9803
▁sucks	-10.9805
ates	-10.9813
nuck	-10.9836
!!!	-10.9846
▁ja	-10.9849
neu	-10.9852
well	-10.9859
▁True	-10.9862
umbo	-10.9864
▁matters	-10.9881
iddle	-10.9885
▁Pack	-10.9893
gged	-10.9898
▁dahh	-10.9912
▁ending	-10.9913
bling	-10.9938
▁caps	-10.9939
bike	-10.9994
Lock	-10.9996
▁slipp	-10.9998
pen	-11
▁sole	-11.003
▁moves	-11.0045
▁punks	-11.0058
rated	-11.006
Em	-11.0074
born	-11.009
▁hum	-11.0093
▁tw	-11.0096
Animals	-11.0101
▁slid	-11.0102
itty	-11.0122
form	-11.0132
▁al	-11.0146
▁fum	-11.0149
chie	-11.0151
iz	-11.0164
▁Ann	-11.0182
▁questions	-11.0193
▁signs	-11.0197
our	-11.0206
▁chat	-11.022
rate	-11.0247
▁Gettin	-11.0254
Bou	-11.0257
▁chains	-11.0328
ism	-11.0335
▁gat	-11.0342
▁goo	-11.0343
ot	-11.0344
aked	-11.0363
llow	-11.0378
▁Act	-11.0382
▁spun	-11.0396
ee	-11.0399
▁ash	-11.0409
▁Mac	-11.042
▁plays	-11.0436
▁dealt	-11.0512
▁floors	-11.052
ock	-11.0578
▁Mos	-11.0597
▁snappin	-11.0633
ison	-11.0657
▁prop	-11.0689
▁woo	-11.0691
▁Givin	-11.0712
▁tit	-11.0742
▁tears	-11.0748
▁se	-11.0749
▁Makin	-11.0768
Si	-11.0768
fa	-11.078
▁swa	-11.0786
zz	-11.0823
stance	-11.0836
▁chi	-11.0843
did	-11.0845
▁mil	-11.0848
ical	-11.0851
br	-11.0851
▁Bumpin	-11.0857
▁Op	-11.0878
▁si	-11.0885
gar	-11.0918
ette	-11.094
▁create	-11.0953
painted	-11.0972
▁Fif	-11.1002
ative	-11.1009
▁Fire	-11.1012
▁slug	-11.1028
pits	-11.1036
▁com	-11.1042
pped	-11.1047
bed	-11.1062
▁drip	-11.107
▁commit	-11.1087
▁sc	-11.1092
astic	-11.1104
▁lettin	-11.1111
po	-11.1125
ddy	-11.1138
beat	-11.1138
▁cape	-11.1157
▁barre	-11.1166
▁coin	-11.1173
ok	-11.1174
▁uhh	-11.1178
▁Li	-11.1209
▁hoo	-11.123
py	-11.1254
▁stamp	-11.1263
hoe	-11.1264
▁mid	-11.1266
▁imp	-11.127
▁cru	-11.1271
shirt	-11.1278
ole	-11.1281
▁Woo	-11.1282
▁sen	-11.1298
▁Knowin	-11.13
▁lawsuit	-11.1307
▁neighborhood	-11.1307
▁diaper	-11.1308
▁root	-11.1308
▁issue	-11.131
▁statement	-11.1311
▁Game	-11.1313
▁retard	-11.1318
win	-11.1324
1	-11.1332
ex	-11.1339
▁Shot	-11.1339
▁cocksucker	-11.134
▁object	-11.1353
cratch	-11.1353
▁video	-11.136
▁chip	-11.1363
▁parkin	-11.1363
▁insult	-11.1365
▁nail	-11.137
lani	-11.1371
▁view	-11.1375
ember	-11.1376
ities	-11.1377
▁candle	-11.1378
▁Step	-11.1386
ore	-11.1393
bra	-11.1394
off	-11.1395
▁imagin	-11.1399
▁knot	-11.1408
▁Red	-11.1432
▁Bat	-11.144
nate	-11.1442
asso	-11.1452
unt	-11.146
▁marsh	-11.1468
▁bon	-11.1482
▁cracker	-11.1484
gie	-11.1485
▁buck	-11.1487
▁limb	-11.1497
war	-11.1499
▁sigh	-11.15
Tip	-11.1509
ncy	-11.1516
▁suffer	-11.1516
goo	-11.1524
tiny	-11.1525
hold	-11.1526
▁Ex	-11.1528
os	-11.1532
▁cab	-11.1532
▁punchin	-11.1535
Chill	-11.1536
fire	-11.154
wise	-11.1544
erson	-11.1549
Tang	-11.1549
Joyner	-11.1554
esteem	-11.1554
▁necks	-11.156
▁disgust	-11.156
ballin	-11.156
truck	-11.1562
rabbed	-11.1562
Hold	-11.1564
Nigga	-11.1565
pple	-11.1565
Hai	-11.1566
White	-11.1566
wife	-11.1566
Everybody	-11.1566
Superman	-11.1566
foot	-11.1566
everybody	-11.1566
something	-11.1566
why	-11.1566
▁pops	-11.1567
thinking	-11.1567
bang	-11.1569
life	-11.1571
Bitches	-11.1571
▁shred	-11.1572
corn	-11.1575
▁mor	-11.1576
Yes	-11.158
ki	-11.158
vision	-11.1582
▁rub	-11.1585
fack	-11.1586
▁rum	-11.1586
▁exhaust	-11.1587
▁succeed	-11.1588
▁arrive	-11.1592
▁shatter	-11.1592
▁reverse	-11.1593
▁master	-11.1594
▁retire	-11.1596
lift	-11.16
▁Whe	-11.1601
atur	-11.1602
Beyonc	-11.1604
wood	-11.1604
▁terror	-11.1606
hands	-11.1611
Son	-11.1612
▁cage	-11.1616
▁hustle	-11.1618
Ohh	-11.1618
▁realize	-11.1619
▁bake	-11.162
now	-11.1623
ower	-11.1624
doo	-11.1624
▁dyin	-11.1626
▁lab	-11.1628
nstead	-11.1628
OO	-11.1629
▁wrestle	-11.1629
esterday	-11.1629
▁flippin	-11.1629
▁escapin	-11.1629
rasti	-11.163
uarantee	-11.1631
Screamin	-11.1632
▁Amityville	-11.1632
▁Dahmer	-11.1632
▁Flav	-11.1632
▁Hennessy	-11.1632
▁JonBen	-11.1632
▁Kardashian	-11.1632
▁Machine	-11.1632
▁Matthew	-11.1632
▁Parent	-11.1632
▁Pistol	-11.1632
▁Rakim	-11.1632
▁Record	-11.1632
▁Renegade	-11.1632
▁Shorty	-11.1632
▁Simpson	-11.1632
▁Tuesday	-11.1632
▁Tupac	-11.1632
▁aluminum	-11.1632
▁balcony	-11.1632
▁berserk	-11.1632
▁brawl	-11.1632
▁breakfast	-11.1632
▁college	-11.1632
▁column	-11.1632
▁confidence	-11.1632
▁conquer	-11.1632
▁cuckoo	-11.1632
▁depth	-11.1632
▁discuss	-11.1632
▁earlier	-11.1632
▁familiar	-11.1632
▁faucet	-11.1632
▁hurl	-11.1632
▁iPod	-11.1632
▁influence	-11.1632
▁janitor	-11.1632
▁lunatic	-11.1632
▁obstacle	-11.1632
▁phase	-11.1632
▁possible	-11.1632
▁predominantly	-11.1632
▁pupil	-11.1632
▁puppy	-11.1632
▁responsibility	-11.1632
▁spiral	-11.1632
▁squirrels	-11.1632
▁stereo	-11.1632
▁storage	-11.1632
▁swung	-11.1632
▁symbol	-11.1632
▁upstairs	-11.1632
▁wolves	-11.1632
▁Benzino	-11.1632
▁Dracula	-11.1632
▁Ronnie	-11.1632
▁admire	-11.1632
▁attached	-11.1632
▁cherish	-11.1632
▁definiti	-11.1632
▁oink	-11.1632
▁script	-11.1632
▁Clyde	-11.1632
▁Street	-11.1632
▁cousin	-11.1632
▁unfur	-11.1632
▁Whitney	-11.1632
▁built	-11.1632
▁inherit	-11.1632
▁sequel	-11.1632
▁squirt	-11.1632
▁Ambassadors	-11.1632
▁stool	-11.1632
▁bowels	-11.1632
▁jugular	-11.1632
evolution	-11.1632
▁mistook	-11.1632
▁vengeance	-11.1632
▁comedian	-11.1632
▁sinister	-11.1632
ranberr	-11.1632
▁demand	-11.1632
▁rims	-11.1632
▁sauce	-11.1632
▁cypher	-11.1632
▁terrified	-11.1632
▁tricycle	-11.1632
▁Kryptonite	-11.1632
▁approach	-11.1632
▁expectations	-11.1632
▁swarm	-11.1632
▁Slash	-11.1632
▁automatic	-11.1632
▁valium	-11.1632
▁English	-11.1632
▁garage	-11.1632
▁Swear	-11.1632
▁breast	-11.1632
▁auto	-11.1632
▁feature	-11.1632
▁profit	-11.1632
▁Madonna	-11.1632
▁culture	-11.1632
▁government	-11.1632
▁Rubi	-11.1632
Syn	-11.1632
▁closure	-11.1632
▁Extra	-11.1632
▁Rais	-11.1632
▁worms	-11.1632
▁mummy	-11.1632
balance	-11.1632
▁affect	-11.1632
▁intense	-11.1632
▁rockstar	-11.1632
Bridge	-11.1632
▁cranium	-11.1632
▁baggage	-11.1632
▁underdog	-11.1632
▁windshield	-11.1632
▁harass	-11.1632
▁Jett	-11.1632
▁bygones	-11.1632
▁Recovery	-11.1632
▁drift	-11.1632
▁content	-11.1632
▁sloppy	-11.1632
▁sweetheart	-11.1632
▁sympathy	-11.1632
▁experiment	-11.1632
▁guarantee	-11.1632
▁Creek	-11.1632
▁immediately	-11.1632
▁industry	-11.1632
▁fuel	-11.1632
▁rag	-11.1632
▁blouse	-11.1632
▁choose	-11.1632
▁conceal	-11.1632
chong	-11.1632
▁Chew	-11.1632
▁Greatest	-11.1632
▁rowdy	-11.1632
▁straw	-11.1632
▁curb	-11.1632
▁Triumph	-11.1632
▁hinge	-11.1632
▁thou	-11.1632
▁pathetic	-11.1632
▁casket	-11.1632
▁claw	-11.1632
▁slingshot	-11.1632
▁popular	-11.1632
▁squeezing	-11.1633
▁shingle	-11.1633
▁psychotic	-11.1633
▁Batman	-11.1633
▁cement	-11.1633
▁misery	-11.1633
▁Stiffe	-11.1633
▁waist	-11.1633
▁cough	-11.1633
▁daily	-11.1633
▁Lamar	-11.1633
▁booze	-11.1633
▁Close	-11.1633
▁Slip	-11.1633
▁rattle	-11.1633
▁saving	-11.1633
▁maxi	-11.1633
▁Eagle	-11.1633
▁regardless	-11.1633
▁spoil	-11.1633
▁tension	-11.1633
▁Rain	-11.1633
▁Name	-11.1633
▁hypno	-11.1633
▁source	-11.1633
▁lame	-11.1634
▁sidewalk	-11.1634
▁hung	-11.1634
▁menace	-11.1634
▁Aiyyo	-11.1634
▁hollow	-11.1634
▁Carlo	-11.1634
▁BET	-11.1634
▁vanity	-11.1634
▁Kool	-11.1634
▁hump	-11.1634
▁chess	-11.1634
▁June	-11.1634
▁buddy	-11.1634
cter	-11.1635
▁chose	-11.1635
▁ballistic	-11.1635
▁Phil	-11.1635
▁headphones	-11.1635
▁Sippin	-11.1635
▁haunt	-11.1635
▁Canada	-11.1635
▁River	-11.1635
hucka	-11.1636
▁apartment	-11.1636
▁yawn	-11.1636
▁loop	-11.1636
▁Naw	-11.1636
▁tub	-11.1636
▁Brown	-11.1636
▁south	-11.1636
▁strangling	-11.1636
▁rail	-11.1636
nstein	-11.1636
▁spew	-11.1636
▁direction	-11.1636
▁Norman	-11.1636
▁slight	-11.1636
▁Smart	-11.1637
▁Smith	-11.1637
▁Candy	-11.1637
OW	-11.1637
▁squad	-11.1637
▁classic	-11.1637
▁Mark	-11.1637
▁invented	-11.1638
hell	-11.1638
▁granted	-11.1638
▁dyed	-11.1638
▁exit	-11.1638
▁broom	-11.1638
▁Tear	-11.1638
▁pway	-11.1638
▁subliminal	-11.1638
▁Pari	-11.1639
▁teenager	-11.1639
▁joy	-11.1639
AHH	-11.1639
▁latch	-11.1639
▁Angeles	-11.164
▁pub	-11.164
▁poop	-11.1641
▁hunch	-11.1641
▁Mix	-11.1641
▁manure	-11.1641
▁coaster	-11.1641
▁proc	-11.1642
▁hollerin	-11.1642
▁hunger	-11.1643
▁divorced	-11.1643
▁heroes	-11.1643
▁sixty	-11.1643
▁200	-11.1643
▁sin	-11.1643
▁Jeff	-11.1643
▁Bullet	-11.1643
▁kamikaze	-11.1643
▁scale	-11.1643
▁shrooms	-11.1643
▁per	-11.1643
▁blank	-11.1644
▁Stace	-11.1644
▁foul	-11.1644
▁movement	-11.1644
natch	-11.1644
▁vile	-11.1645
▁porn	-11.1645
▁nest	-11.1645
▁haul	-11.1645
▁proper	-11.1645
▁tease	-11.1646
▁keed	-11.1646
▁wander	-11.1646
▁Wipe	-11.1646
▁spitter	-11.1646
▁gee	-11.1647
▁pun	-11.1647
▁Nine	-11.1648
▁inspiration	-11.1648
▁discovered	-11.1648
eahhh	-11.1649
▁mmm	-11.1649
angel	-11.165
▁stall	-11.165
Mmm	-11.165
▁signal	-11.165
▁vrinn	-11.165
▁Master	-11.1651
▁trance	-11.1651
▁Way	-11.1651
▁Dick	-11.1653
▁exam	-11.1653
▁Pay	-11.1653
▁chasing	-11.1653
▁condition	-11.1654
▁portra	-11.1654
whooooo	-11.1655
▁leap	-11.1655
▁grain	-11.1655
▁Case	-11.1655
▁dame	-11.1656
▁confused	-11.1656
▁skate	-11.1656
▁cable	-11.1656
▁hired	-11.1657
▁spell	-11.166
▁rebel	-11.166
▁vu	-11.166
▁scratches	-11.166
▁statue	-11.166
▁beep	-11.1661
▁Sue	-11.1661
▁assum	-11.1662
▁Clai	-11.1662
ural	-11.1662
▁20	-11.1663
▁aisle	-11.1663
▁solution	-11.1664
▁Kendrick	-11.1664
▁apologize	-11.1664
▁farther	-11.1664
▁field	-11.1664
▁spl	-11.1664
▁brainless	-11.1664
Buckshot	-11.1665
▁ob	-11.1666
▁coast	-11.1666
▁trans	-11.1666
▁soap	-11.1667
minus	-11.1667
▁male	-11.1667
▁link	-11.1667
▁romantic	-11.1668
▁Six	-11.1668
▁Cold	-11.1668
▁begun	-11.1668
▁Relapse	-11.1668
▁sofa	-11.1669
▁Puff	-11.1669
▁kisses	-11.1669
▁outlet	-11.1671
▁brow	-11.1672
▁realized	-11.1672
▁sweater	-11.1673
▁bullied	-11.1675
▁perfectly	-11.1676
▁glocks	-11.1677
▁lengths	-11.1677
▁opponents	-11.1677
hee	-11.1677
▁intentions	-11.1677
▁persona	-11.1678
sitive	-11.1679
▁fackin	-11.1679
▁cling	-11.1679
UT	-11.1679
▁Nan	-11.168
▁danger	-11.168
▁existed	-11.168
divide	-11.1681
ayers	-11.1681
▁Bay	-11.1681
▁Hang	-11.1682
▁obvious	-11.1682
ically	-11.1683
we	-11.1684
▁early	-11.1684
▁disgusting	-11.1684
▁suffering	-11.1684
▁jot	-11.1687
persona	-11.1688
▁Fell	-11.169
▁fuss	-11.1691
▁pity	-11.1694
▁Fan	-11.1694
wen	-11.1695
▁coma	-11.1696
▁appear	-11.1696
▁pissin	-11.1697
▁leak	-11.1698
▁shells	-11.1698
▁arguin	-11.17
▁wearin	-11.1701
gus	-11.1707
ethod	-11.1708
ka	-11.1709
▁fling	-11.1712
▁mourning	-11.1713
▁quicker	-11.1713
▁crashed	-11.1713
mpuls	-11.1713
▁dirty	-11.1717
▁beam	-11.1717
▁LL	-11.1719
▁drawn	-11.1719
▁Bl	-11.1719
▁cannon	-11.172
▁Feed	-11.1723
rief	-11.1723
▁allowed	-11.1723
operating	-11.1724
▁buzzed	-11.1724
▁Hard	-11.1724
enty	-11.1725
▁nation	-11.1726
▁Ali	-11.1733
▁closer	-11.1733
▁cabin	-11.1735
▁anus	-11.1736
▁pimp	-11.174
▁mellow	-11.174
▁Lee	-11.1741
▁Dave	-11.1741
▁searching	-11.1742
▁jacked	-11.1745
▁stressed	-11.1745
▁Hurr	-11.175
haun	-11.1752
▁Eyes	-11.1753
▁turds	-11.1755
▁vows	-11.1755
▁individuals	-11.1755
▁mugs	-11.1755
▁syllables	-11.1756
▁Thing	-11.176
▁served	-11.176
▁aware	-11.1761
▁witnessed	-11.1767
▁Laur	-11.1768
▁army	-11.1769
▁workin	-11.1772
▁sucka	-11.1772
▁um	-11.1773
▁mov	-11.1773
▁Heh	-11.1775
▁hose	-11.1776
▁shittin	-11.1777
▁Ko	-11.1778
▁Sky	-11.1778
▁blasted	-11.1779
LL	-11.1781
▁selfish	-11.1783
▁escaped	-11.1783
▁figured	-11.1783
ritan	-11.1783
▁quee	-11.1785
ark	-11.1785
ik	-11.1786
▁knockin	-11.1787
▁crushed	-11.179
eroin	-11.1792
▁Kyu	-11.1793
▁Va	-11.1796
▁ray	-11.1797
▁scent	-11.1797
▁bearing	-11.1802
af	-11.1802
▁Ow	-11.1803
fo	-11.1803
▁tune	-11.1805
▁sleepin	-11.1805
▁ne	-11.1805
▁spilling	-11.1806
▁Sea	-11.1807
▁kit	-11.1808
▁fac	-11.1808
▁singin	-11.1809
▁throwin	-11.1809
scratch	-11.1812
▁Kuniva	-11.1815
▁chased	-11.1817
ippity	-11.1824
Clea	-11.1827
▁gut	-11.1831
▁aimed	-11.1832
▁coffins	-11.1836
▁burned	-11.1848
▁marr	-11.1848
▁presents	-11.1848
▁tur	-11.1857
▁bloody	-11.1863
-4	-11.1865
Ke	-11.1867
▁Amy	-11.1871
▁divin	-11.1873
▁higher	-11.1875
urger	-11.1876
▁Ve	-11.1876
string	-11.1881
say	-11.189
egacy	-11.1894
▁fallin	-11.1895
▁tuck	-11.1895
▁heated	-11.1896
▁tu	-11.1904
▁shift	-11.1907
99	-11.1918
▁objects	-11.1918
holes	-11.1919
▁retards	-11.1919
▁nu	-11.1928
▁crackers	-11.1944
▁Kin	-11.1951
▁sour	-11.1952
undy	-11.1954
▁map	-11.1956
▁cave	-11.1957
timate	-11.196
▁gats	-11.1963
tory	-11.197
▁comple	-11.1979
une	-11.1979
▁sm	-11.1993
Finger	-11.1994
▁erase	-11.1995
Spoken	-11.1995
▁decks	-11.2001
▁nerves	-11.2001
▁showin	-11.2002
▁math	-11.2006
▁Whoa	-11.2025
▁*	-11.2026
izzel	-11.2028
▁Ed	-11.2031
ina	-11.2033
drew	-11.2045
▁goner	-11.2058
▁Con	-11.2058
dance	-11.206
oom	-11.2061
▁followed	-11.2065
▁Maxine	-11.2067
▁Pa	-11.2072
gg	-11.208
▁idiots	-11.2082
▁dimes	-11.2084
▁writers	-11.2088
▁fitte	-11.2097
▁knuckle	-11.2097
ezy	-11.21
▁facts	-11.2102
▁cracked	-11.2103
▁Twi	-11.212
rous	-11.2131
▁dum	-11.2134
▁toys	-11.2138
itz	-11.2166
▁tablet	-11.2166
ut	-11.2168
▁broads	-11.2169
▁cheeks	-11.217
▁diseases	-11.217
ay	-11.2175
▁fruit	-11.2178
▁Hill	-11.2185
▁fare	-11.2185
uil	-11.2202
▁mat	-11.2212
▁Ski	-11.2228
▁runne	-11.2232
▁glo	-11.2234
ER	-11.2237
chicka	-11.2242
▁tre	-11.225
▁woods	-11.2254
uke	-11.2255
▁Tom	-11.2255
▁fags	-11.2256
▁fighter	-11.2261
▁Di	-11.2261
▁loss	-11.2262
▁Ba	-11.2276
▁Pr	-11.2277
▁formula	-11.228
ious	-11.2288
▁Ohh	-11.2301
▁hitch	-11.2314
▁bored	-11.233
▁dicks	-11.233
▁fath	-11.2338
▁noon	-11.2339
▁listening	-11.2347
▁peel	-11.2351
rk	-11.2354
▁Ne	-11.237
mother	-11.238
pew	-11.2385
▁Sc	-11.2395
▁Hall	-11.2396
▁singer	-11.2403
▁charges	-11.2419
nky	-11.2421
▁marks	-11.2441
▁breaking	-11.2444
▁Til	-11.2445
ties	-11.2448
ez	-11.2457
▁minds	-11.2471
▁staying	-11.2476
▁Men	-11.2512
ants	-11.2513
▁fists	-11.2516
..."	-11.2519
▁comm	-11.253
▁para	-11.2537
ush	-11.254
▁bounc	-11.2559
▁shower	-11.2565
ied	-11.2566
ham	-11.2571
eddy	-11.2581
▁dose	-11.2595
tie	-11.2598
▁pockets	-11.2605
▁tubes	-11.2609
ning	-11.2611
▁tat	-11.2612
▁snipe	-11.2621
▁fi	-11.2624
▁Ring	-11.2635
▁dive	-11.2645
ourne	-11.2661
▁decen	-11.2669
VER	-11.2679
▁Gr	-11.2688
gger	-11.2692
cap	-11.27
▁sha	-11.2706
ap	-11.2716
▁coppin	-11.2719
▁Ram	-11.2734
?[	-11.2735
ynamite	-11.2771
▁crowds	-11.2784
ual	-11.2808
▁itch	-11.282
▁hu	-11.2822
gen	-11.283
real	-11.2841
▁Ka	-11.2871
runk	-11.2883
▁str	-11.2913
▁mas	-11.2947
▁caus	-11.295
ayy	-11.2966
▁stores	-11.2971
ested	-11.2987
pace	-11.2994
▁den	-11.3003
ami	-11.3004
▁mow	-11.3039
!]	-11.305
▁answers	-11.3059
▁goal	-11.3066
let	-11.3066
onica	-11.3068
entally	-11.3079
▁Chi	-11.3086
▁assholes	-11.3089
row	-11.309
▁vin	-11.309
che	-11.3115
▁pe	-11.3139
ese	-11.3149
▁battles	-11.315
▁swor	-11.3157
ern	-11.3175
illin	-11.3207
▁bees	-11.3224
mp	-11.3226
▁Gi	-11.3239
▁sl	-11.3239
▁Mal	-11.3264
▁brun	-11.327
▁host	-11.3282
▁fr	-11.3288
uff	-11.3309
ast	-11.3313
▁Hu	-11.3327
ail	-11.3331
ight	-11.3331
▁seein	-11.3345
▁lovin	-11.3379
▁Vic	-11.3393
▁causin	-11.3403
ti	-11.3416
are	-11.3416
▁jobs	-11.3437
dy	-11.3453
ature	-11.3462
chi	-11.3473
late	-11.3477
cious	-11.3491
acy	-11.3497
PE	-11.35
▁Aw	-11.351
nica	-11.356
▁changin	-11.3566
▁Vi	-11.3579
ection	-11.358
▁Wor	-11.36
▁Pha	-11.3608
▁fin	-11.3634
pum	-11.3645
▁Wh	-11.365
▁Trea	-11.3697
take	-11.3732
▁dil	-11.3737
Pa	-11.3745
ssed	-11.3747
▁tilt	-11.3763
odle	-11.3776
▁laughs	-11.3782
▁within	-11.38
ug	-11.3802
am	-11.381
ai	-11.3819
sexual	-11.3827
umble	-11.3827
inch	-11.383
▁char	-11.3856
"?	-11.3876
▁Mon	-11.3896
▁willing	-11.391
v	-11.3915
▁seek	-11.3917
rrr	-11.3932
gh	-11.394
wa	-11.3941
▁nin	-11.3954
prove	-11.3966
run	-11.3967
▁thr	-11.397
▁fits	-11.4001
▁shov	-11.4008
ew	-11.4012
gent	-11.4015
cid	-11.4047
▁Ver	-11.4051
avy	-11.4054
▁pok	-11.4056
▁peaceful	-11.4064
▁cur	-11.4112
pher	-11.4144
▁screams	-11.4166
▁pi	-11.4166
od	-11.418
▁ac	-11.419
lam	-11.4196
rced	-11.4211
▁thug	-11.4218
▁Cho	-11.4222
hen	-11.4235
▁drinks	-11.4238
De	-11.4246
▁el	-11.4264
bot	-11.4305
lie	-11.4336
▁tan	-11.4336
▁chicks	-11.4349
▁gen	-11.4363
▁Mar	-11.4364
▁Sold	-11.4371
ini	-11.4372
vage	-11.4394
mum	-11.4394
par	-11.4399
ice	-11.4428
▁hips	-11.4431
za	-11.4431
▁Se	-11.445
▁por	-11.4451
gun	-11.4456
ja	-11.4466
▁gl	-11.4475
glasses	-11.4486
filled	-11.4487
opped	-11.4491
ya	-11.4494
▁Res	-11.4522
▁Strap	-11.4522
▁Wil	-11.4526
▁Sl	-11.4527
▁hick	-11.4533
AM	-11.4552
▁backin	-11.4559
▁stra	-11.4576
girl	-11.4576
lite	-11.4587
ify	-11.4593
sible	-11.4639
▁politic	-11.4642
▁project	-11.4642
▁quarter	-11.4642
▁amount	-11.4642
▁whirl	-11.4642
▁Grammy	-11.4642
▁ankle	-11.4643
▁waffle	-11.4643
▁gimmick	-11.4643
▁erupt	-11.4643
▁Sama	-11.4647
▁missile	-11.4651
▁puttin	-11.4656
uffed	-11.4667
▁Star	-11.467
▁computer	-11.4673
▁plaque	-11.4673
▁whisper	-11.4673
▁emcee	-11.4674
▁partner	-11.4674
▁gangster	-11.4674
▁Leavin	-11.4681
▁wound	-11.4682
▁Talkin	-11.4682
▁cheatin	-11.4683
cial	-11.4685
▁present	-11.4687
▁coffin	-11.4687
▁ni	-11.4689
top	-11.469
▁president	-11.4691
hearted	-11.47
▁Meet	-11.4701
▁female	-11.4705
▁Sli	-11.4709
▁rubber	-11.4712
▁mushroom	-11.4712
▁tire	-11.4716
ause	-11.4718
▁due	-11.4726
▁rave	-11.4729
afford	-11.4732
spect	-11.4739
▁climbin	-11.474
pri	-11.4747
amburger	-11.4749
valent	-11.4761
bl	-11.4771
▁sprayin	-11.4773
look	-11.4776
▁stinkin	-11.4777
▁fella	-11.478
olin	-11.4789
▁bl	-11.4792
matic	-11.4796
ria	-11.4797
▁que	-11.4803
walk	-11.4816
long	-11.4816
▁qui	-11.4819
▁trad	-11.4819
roll	-11.4825
udi	-11.4836
faced	-11.4837
▁travel	-11.485
▁cussin	-11.4852
▁fil	-11.4852
▁qu	-11.4857
▁layer	-11.4865
▁Pen	-11.4866
Rick	-11.487
know	-11.4871
▁cl	-11.4872
▁pal	-11.4873
blend	-11.4874
▁chop	-11.4877
Swift	-11.4879
zi	-11.488
▁duckin	-11.488
▁Hav	-11.4881
for	-11.4882
who	-11.4886
break	-11.4887
vrin	-11.4887
Whoops	-11.4889
BOO	-11.489
load	-11.4891
Puff	-11.4892
quin	-11.4893
fuss	-11.4894
road	-11.4894
wolf	-11.4894
Roll	-11.4895
Shu	-11.4895
seven	-11.4896
Wow	-11.4897
Ph	-11.4897
proof	-11.4897
Head	-11.4897
Stan	-11.4897
Good	-11.4898
place	-11.4898
▁fart	-11.4898
clock	-11.4898
blows	-11.4898
zero	-11.4899
piece	-11.4899
right	-11.4899
child	-11.4899
honey	-11.4899
Out	-11.4899
window	-11.4899
school	-11.4899
Girl	-11.49
Why	-11.49
just	-11.49
water	-11.49
check	-11.4901
without	-11.4901
How	-11.4901
will	-11.4901
Like	-11.4903
Suck	-11.4904
home	-11.4904
Lil	-11.4904
11	-11.4906
▁motherfuck	-11.4908
kill	-11.4909
Die	-11.491
Tick	-11.4911
▁Both	-11.4911
face	-11.4913
▁cloth	-11.4913
▁stock	-11.4913
band	-11.4914
kick	-11.4914
down	-11.4915
gang	-11.4915
▁packin	-11.4919
▁golf	-11.4923
▁strand	-11.4923
▁accept	-11.4926
▁snort	-11.4928
▁Fred	-11.4928
▁blond	-11.4929
angled	-11.4929
rman	-11.4929
▁deny	-11.4931
▁confuse	-11.4931
pro	-11.4931
▁judge	-11.4932
▁sil	-11.4933
▁desp	-11.4938
▁fee	-11.4939
▁overdose	-11.4939
uhh	-11.4941
▁rent	-11.4941
bias	-11.4943
q	-11.4945
▁Grand	-11.4946
▁def	-11.4948
▁scare	-11.4951
verted	-11.4952
▁numb	-11.4953
cup	-11.4955
▁plug	-11.4955
Aw	-11.4956
mith	-11.4958
▁Chick	-11.4959
▁stranglin	-11.4959
steps	-11.4959
▁beginnin	-11.4959
▁drivin	-11.4959
▁actual	-11.4959
▁differ	-11.496
▁smokin	-11.496
▁mash	-11.496
▁pic	-11.496
▁stitch	-11.4961
ncredible	-11.4961
dee	-11.4962
urviv	-11.4962
adio	-11.4963
▁felon	-11.4963
onsider	-11.4963
▁Self	-11.4963
escription	-11.4963
egardless	-11.4964
OU	-11.4964
▁scalp	-11.4964
BLE	-11.4965
Columbine	-11.4965
Redrum	-11.4965
nvincible	-11.4965
rainwreck	-11.4965
▁ASAP	-11.4965
▁Alaina	-11.4965
▁Bizkit	-11.4965
▁Bugz	-11.4965
▁Caucasian	-11.4965
▁Chainsaw	-11.4965
▁Climb	-11.4965
▁Craig	-11.4965
▁Crunch	-11.4965
▁Cupid	-11.4965
▁Custom	-11.4965
▁DNA	-11.4965
▁David	-11.4965
▁Detox	-11.4965
▁Dixie	-11.4965
▁Ferrari	-11.4965
▁Lindsay	-11.4965
▁Malcolm	-11.4965
▁Pinocchio	-11.4965
▁Prince	-11.4965
▁Public	-11.4965
▁Rawkus	-11.4965
▁Razor	-11.4965
▁Revival	-11.4965
▁Rudolph	-11.4965
▁Square	-11.4965
▁Vodka	-11.4965
▁absurd	-11.4965
▁accusation	-11.4965
▁adjective	-11.4965
▁anxiety	-11.4965
▁apology	-11.4965
▁argument	-11.4965
▁bolts	-11.4965
▁bonkers	-11.4965
▁borrow	-11.4965
▁category	-11.4965
▁cease	-11.4965
▁celebrat	-11.4965
▁cerebral	-11.4965
▁chigga	-11.4965
▁cigarette	-11.4965
▁clerk	-11.4965
▁compete	-11.4965
▁compliment	-11.4965
▁concrete	-11.4965
▁confirm	-11.4965
▁convict	-11.4965
▁cyclone	-11.4965
▁defeat	-11.4965
▁depends	-11.4965
▁determined	-11.4965
▁eager	-11.4965
▁earlobe	-11.4965
▁earthquake	-11.4965
▁embarrassed	-11.4965
▁enormous	-11.4965
▁entendre	-11.4965
▁environment	-11.4965
▁epitome	-11.4965
▁extreme	-11.4965
▁folks	-11.4965
▁furniture	-11.4965
▁gauze	-11.4965
▁goddammit	-11.4965
▁harbor	-11.4965
▁jelly	-11.4965
▁juvenile	-11.4965
▁language	-11.4965
▁necklace	-11.4965
▁ocean	-11.4965
▁opposition	-11.4965
▁oxygen	-11.4965
▁pandemonium	-11.4965
▁pattern	-11.4965
▁period	-11.4965
▁pineapple	-11.4965
▁possibly	-11.4965
▁possum	-11.4965
▁princip	-11.4965
▁progress	-11.4965
▁ratchet	-11.4965
▁refrigerator	-11.4965
▁relentless	-11.4965
▁remote	-11.4965
▁result	-11.4965
▁sandwich	-11.4965
▁scandalous	-11.4965
▁scrotum	-11.4965
▁sissies	-11.4965
▁sorcere	-11.4965
▁spaghetti	-11.4965
▁spazzin	-11.4965
▁sporadic	-11.4965
▁stories	-11.4965
▁strawberry	-11.4965
▁study	-11.4965
▁subject	-11.4965
▁suffocate	-11.4965
▁thermometer	-11.4965
▁tissue	-11.4965
▁tobacco	-11.4965
▁tonsils	-11.4965
▁traffic	-11.4965
▁untouchable	-11.4965
▁warfare	-11.4965
▁worrie	-11.4965
▁written	-11.4965
▁Ambien	-11.4965
▁MAC	-11.4965
▁Pretend	-11.4965
▁amplif	-11.4965
▁capsule	-11.4965
▁cushion	-11.4965
▁identif	-11.4965
▁illusion	-11.4965
Alicia	-11.4965
WHAT	-11.4965
▁Eddie	-11.4965
▁Embarrass	-11.4965
▁Interscope	-11.4965
▁Invisibl	-11.4965
▁chord	-11.4965
▁coroner	-11.4965
▁dentist	-11.4965
▁drapes	-11.4965
▁eliminat	-11.4965
▁felch	-11.4965
▁naughty	-11.4965
▁retreat	-11.4965
▁riot	-11.4965
▁scrubs	-11.4965
▁swine	-11.4965
▁thighs	-11.4965
gnac	-11.4965
▁Isaac	-11.4965
▁Swallow	-11.4965
▁bleach	-11.4965
▁millionaire	-11.4965
▁resort	-11.4965
▁sissy	-11.4965
▁stoop	-11.4965
evada	-11.4965
▁DeShaun	-11.4965
▁Frank	-11.4965
▁McVay	-11.4965
▁Nazi	-11.4965
▁false	-11.4965
▁frown	-11.4965
▁studie	-11.4965
▁withdraw	-11.4965
Cowboy	-11.4965
Guilty	-11.4965
▁Cartman	-11.4965
▁adapt	-11.4965
▁cartoon	-11.4965
▁expert	-11.4965
▁mechanic	-11.4965
▁perhaps	-11.4965
▁radar	-11.4965
▁vault	-11.4965
holic	-11.4965
▁Voice	-11.4965
▁saloon	-11.4965
▁vendetta	-11.4965
mobile	-11.4965
ucci	-11.4965
▁Georg	-11.4965
▁Admit	-11.4965
▁Ortiz	-11.4965
▁carnage	-11.4965
▁holiday	-11.4965
▁intercourse	-11.4965
▁Road	-11.4965
▁arrest	-11.4965
▁millimeter	-11.4965
▁Phife	-11.4965
▁Chronic	-11.4965
▁Outsiders	-11.4965
▁garden	-11.4965
▁tusk	-11.4965
▁Pet	-11.4965
▁concept	-11.4965
▁observ	-11.4965
▁Oscar	-11.4965
▁hardcore	-11.4965
▁lethal	-11.4965
▁School	-11.4965
▁scab	-11.4965
▁nipple	-11.4965
▁zipped	-11.4965
▁masterpiece	-11.4965
▁Russian	-11.4965
▁Vicodin	-11.4965
▁pleasure	-11.4965
▁process	-11.4965
▁vibrat	-11.4965
▁failure	-11.4965
▁lottery	-11.4965
▁motor	-11.4965
▁Knock	-11.4965
▁Pepsi	-11.4965
▁Spider	-11.4965
▁combat	-11.4965
grateful	-11.4965
▁Lupe	-11.4965
▁TEC	-11.4965
▁Tyler	-11.4965
▁Window	-11.4965
▁frust	-11.4965
▁gentleman	-11.4965
▁exploding	-11.4965
▁hypocrite	-11.4965
▁constructi	-11.4965
▁Tyson	-11.4965
▁Dyke	-11.4965
▁soothe	-11.4965
▁thrill	-11.4965
▁scoop	-11.4965
▁titties	-11.4965
▁terrible	-11.4965
▁frank	-11.4965
▁Jermaine	-11.4965
▁midget	-11.4965
▁swapped	-11.4965
▁Cashis	-11.4965
▁smear	-11.4965
▁Testing	-11.4965
▁polish	-11.4965
▁semen	-11.4965
▁whistl	-11.4965
▁forbid	-11.4965
▁Christina	-11.4965
▁phony	-11.4965
▁Slow	-11.4965
▁buffet	-11.4965
▁hatchet	-11.4965
▁methadone	-11.4965
▁bugged	-11.4965
▁mainstream	-11.4965
▁memories	-11.4965
▁Peace	-11.4965
▁torch	-11.4965
▁science	-11.4965
▁bulletproof	-11.4965
wenty	-11.4965
▁jewelry	-11.4965
▁tummy	-11.4965
▁wrench	-11.4965
▁slump	-11.4965
▁flock	-11.4965
▁champ	-11.4965
▁existence	-11.4965
▁thinner	-11.4965
▁violet	-11.4965
▁reflection	-11.4965
▁glance	-11.4965
▁student	-11.4965
▁adjust	-11.4966
▁forehead	-11.4966
▁tuna	-11.4966
▁improve	-11.4966
▁lump	-11.4966
▁Perc	-11.4966
▁appetit	-11.4966
Special	-11.4966
▁Panic	-11.4966
▁recollect	-11.4966
▁scatter	-11.4966
▁stadium	-11.4966
▁behave	-11.4966
▁reign	-11.4966
onopoly	-11.4966
▁psyche	-11.4966
▁stride	-11.4966
▁voo	-11.4966
▁insanity	-11.4966
▁machete	-11.4966
▁trend	-11.4966
AHHH	-11.4966
▁flack	-11.4966
▁kilts	-11.4966
▁cried	-11.4966
▁faint	-11.4966
▁harsh	-11.4966
▁recip	-11.4966
▁chronic	-11.4966
▁flawless	-11.4966
Phone	-11.4966
▁Broke	-11.4966
▁greed	-11.4966
▁patio	-11.4966
▁contain	-11.4966
▁homage	-11.4966
▁Flow	-11.4966
▁define	-11.4966
▁moonlight	-11.4966
vidence	-11.4966
▁minor	-11.4966
evenge	-11.4966
▁denial	-11.4966
▁crates	-11.4966
▁Doberman	-11.4966
▁savage	-11.4966
▁function	-11.4966
▁succ	-11.4966
▁fulfill	-11.4966
▁solid	-11.4966
▁whiske	-11.4966
▁dismember	-11.4966
▁contra	-11.4966
▁prior	-11.4966
▁wrapping	-11.4966
▁Keys	-11.4966
▁contest	-11.4966
▁embarrassing	-11.4966
bones	-11.4966
▁shame	-11.4966
▁resid	-11.4966
▁Fox	-11.4966
cyclop	-11.4966
▁belch	-11.4966
▁Bible	-11.4966
▁magician	-11.4966
▁taunt	-11.4966
▁Stumble	-11.4966
▁nuke	-11.4966
▁herpes	-11.4966
▁thorn	-11.4966
▁peach	-11.4966
▁embrace	-11.4967
▁plaster	-11.4967
▁advi	-11.4967
▁isolat	-11.4967
▁example	-11.4967
▁entertainment	-11.4967
▁clit	-11.4967
▁summer	-11.4967
uku	-11.4967
▁renew	-11.4967
▁Vinc	-11.4967
▁lurkin	-11.4967
▁tripped	-11.4967
▁football	-11.4967
▁sobbing	-11.4967
▁personality	-11.4967
▁tackle	-11.4967
▁pigment	-11.4967
▁description	-11.4967
▁boogie	-11.4967
magine	-11.4967
▁stripper	-11.4967
▁pizza	-11.4967
▁Yayo	-11.4967
▁Brand	-11.4967
▁45	-11.4967
▁Million	-11.4967
▁labor	-11.4967
▁Matter	-11.4967
▁Twice	-11.4967
▁Stat	-11.4967
▁slither	-11.4967
▁Ripper	-11.4967
▁frantic	-11.4968
▁method	-11.4968
▁shark	-11.4968
thological	-11.4968
▁eighteen	-11.4968
▁subconsciously	-11.4968
▁seventy	-11.4968
▁dishes	-11.4968
▁comment	-11.4968
▁orphan	-11.4968
▁Nuts	-11.4968
▁zoo	-11.4968
▁cess	-11.4968
▁dipped	-11.4968
▁snapped	-11.4968
▁receive	-11.4968
chooka	-11.4968
▁snowman	-11.4969
▁Officer	-11.4969
hua	-11.4969
▁rhyming	-11.4969
▁waving	-11.4969
▁ponder	-11.4969
rsenic	-11.4969
▁Found	-11.4969
▁Shout	-11.4969
▁fuzz	-11.4969
▁leaf	-11.4969
▁shish	-11.4969
▁Jackson	-11.4969
▁tragedy	-11.4969
▁groupie	-11.4969
▁ironic	-11.4969
▁Water	-11.4969
▁Johnson	-11.4969
▁hurry	-11.4969
▁boombox	-11.4969
▁bug	-11.4969
anium	-11.4969
▁loco	-11.4969
▁Grim	-11.4969
▁destiny	-11.4969
▁naw	-11.4969
▁Fab	-11.4969
▁Roth	-11.4969
▁desi	-11.4969
▁cannibal	-11.497
▁Pussy	-11.497
▁Laden	-11.497
▁reap	-11.497
▁Kenny	-11.497
logue	-11.497
▁Hyd	-11.497
▁Small	-11.497
▁nuttin	-11.497
▁musk	-11.497
▁spinach	-11.497
▁hint	-11.497
▁stitches	-11.497
▁rawest	-11.497
▁Eight	-11.497
▁Cali	-11.497
amination	-11.497
▁Might	-11.497
▁range	-11.497
▁swerve	-11.497
▁Sleepin	-11.4971
▁slate	-11.4971
▁coach	-11.4971
▁thread	-11.4971
▁achieve	-11.4971
▁Bright	-11.4971
▁fox	-11.4971
▁impal	-11.4971
▁smooth	-11.4971
▁capable	-11.4971
▁friendship	-11.4972
▁stash	-11.4972
▁backyard	-11.4972
▁preacher	-11.4972
▁House	-11.4972
▁nature	-11.4972
▁Drag	-11.4972
uation	-11.4972
▁Completely	-11.4973
wahm	-11.4973
▁Flashin	-11.4973
▁Fri	-11.4974
Cheech	-11.4974
▁prayin	-11.4974
▁provoked	-11.4974
▁discouraged	-11.4974
▁register	-11.4974
▁jest	-11.4974
▁shelf	-11.4974
▁dart	-11.4974
▁escaping	-11.4975
▁Punk	-11.4975
Yup	-11.4975
▁molest	-11.4975
▁Chicka	-11.4975
▁Beach	-11.4975
▁Milo	-11.4975
▁WHE	-11.4976
▁nada	-11.4976
▁among	-11.4976
▁Truck	-11.4976
▁Possibl	-11.4976
▁mustard	-11.4977
▁Ness	-11.4977
▁Everyday	-11.4977
▁mono	-11.4977
▁worthless	-11.4977
▁doink	-11.4977
▁wore	-11.4978
▁Unless	-11.4978
▁funds	-11.4978
▁shopping	-11.4978
needle	-11.4978
▁sax	-11.4979
▁flipping	-11.4979
▁24	-11.4979
ford	-11.4979
▁mister	-11.4979
agic	-11.4979
▁psychologic	-11.4979
▁crashes	-11.498
▁gaping	-11.498
rinkle	-11.498
▁understandable	-11.498
▁gown	-11.498
▁gross	-11.4981
spouse	-11.4981
▁Post	-11.4981
▁Power	-11.4981
▁anywhere	-11.4981
kay	-11.4981
ED	-11.4981
▁spring	-11.4982
▁Rebe	-11.4982
▁crazed	-11.4982
▁Pete	-11.4982
▁Thyme	-11.4982
▁Debbie	-11.4982
▁Timbaland	-11.4982
▁swipe	-11.4982
ndrom	-11.4982
▁climate	-11.4982
▁dispute	-11.4982
▁conduct	-11.4982
▁Grady	-11.4982
endo	-11.4982
▁sync	-11.4983
▁void	-11.4983
▁Monster	-11.4983
▁Father	-11.4983
▁ether	-11.4983
▁babe	-11.4984
▁Bizzy	-11.4984
▁Send	-11.4984
▁scheme	-11.4984
▁chocolate	-11.4984
▁stranger	-11.4984
sacre	-11.4984
▁Redman	-11.4984
▁rust	-11.4984
▁Kru	-11.4984
▁Nov	-11.4985
▁Ear	-11.4986
▁goons	-11.4986
▁Adv	-11.4986
▁flatter	-11.4986
▁combined	-11.4986
▁Speed	-11.4987
▁mole	-11.4987
Juice	-11.4987
▁introducing	-11.4988
▁Cry	-11.4988
rgic	-11.4988
▁chlor	-11.4988
▁Max	-11.4989
▁wallet	-11.4989
▁supply	-11.4989
umb	-11.499
▁breeze	-11.499
▁Puffy	-11.4991
▁Fella	-11.4992
▁Rex	-11.4993
rvey	-11.4993
God	-11.4993
▁leanin	-11.4993
▁rapist	-11.4994
▁drill	-11.4994
▁debt	-11.4994
▁bold	-11.4995
▁height	-11.4995
▁code	-11.4995
▁fortune	-11.4995
▁cray	-11.4997
▁camp	-11.4997
▁patch	-11.4998
dose	-11.4998
▁jug	-11.4998
▁vanish	-11.4998
▁forgetting	-11.4999
▁killas	-11.4999
▁jabb	-11.4999
▁Wire	-11.5
▁Lettin	-11.5
▁silent	-11.5
▁pushin	-11.5
▁clapp	-11.5
▁urin	-11.5002
▁nun	-11.5003
▁sample	-11.5003
▁hatin	-11.5003
tized	-11.5003
▁buzzin	-11.5004
▁slay	-11.5004
▁accepted	-11.5004
▁punches	-11.5004
▁terrorist	-11.5005
▁irony	-11.5005
▁heartless	-11.5005
▁magnet	-11.5006
▁sickness	-11.5006
▁Side	-11.5006
▁dopest	-11.5007
▁pie	-11.5007
ife	-11.5008
▁oil	-11.5009
▁backfire	-11.5009
Palin	-11.5009
▁rotat	-11.5009
▁whattup	-11.501
▁motion	-11.501
ACK	-11.501
▁peak	-11.501
▁passes	-11.5011
▁armor	-11.5011
▁frickin	-11.5012
chy	-11.5012
▁loathing	-11.5012
▁shadow	-11.5012
▁Bei	-11.5012
▁Sarah	-11.5013
▁reply	-11.5013
▁Notorious	-11.5013
hmm	-11.5013
▁OD	-11.5013
▁file	-11.5016
▁Alf	-11.5016
▁vrin	-11.5017
▁swingin	-11.5017
▁Round	-11.5018
dul	-11.5018
▁Ferr	-11.5018
▁Doe	-11.5019
▁stocking	-11.5019
▁cata	-11.5019
▁horny	-11.502
▁shattered	-11.502
▁queer	-11.502
▁mastered	-11.502
▁snorting	-11.5021
▁role	-11.5021
▁smarter	-11.5021
▁yank	-11.5021
▁spillin	-11.5022
▁vase	-11.5022
roe	-11.5023
▁fresher	-11.5023
▁sentimental	-11.5023
zie	-11.5023
▁justify	-11.5023
▁fract	-11.5026
▁pho	-11.5026
▁Sound	-11.5026
▁Tony	-11.5027
▁Dur	-11.5027
▁angles	-11.5028
▁Inc	-11.5029
▁elevat	-11.5029
▁sliced	-11.5029
▁heels	-11.5029
▁poems	-11.503
▁Bang	-11.503
rigade	-11.5031
▁Saints	-11.5031
▁stairs	-11.5031
▁roses	-11.5031
▁dreads	-11.5031
▁explosives	-11.5031
▁journalists	-11.5031
▁nostrils	-11.5031
▁muscles	-11.5031
▁Nation	-11.5032
▁Yoda	-11.5032
▁blurr	-11.5032
▁Piss	-11.5032
▁sacr	-11.5034
▁100	-11.5034
porate	-11.5035
▁breez	-11.5035
▁shy	-11.5035
▁prisoner	-11.5036
▁Chal	-11.5036
▁Hann	-11.5036
▁bay	-11.5037
▁Pump	-11.5037
▁Spring	-11.5037
Digg	-11.5038
beater	-11.5039
▁happenin	-11.5039
prints	-11.5039
▁stuffin	-11.5042
▁Trade	-11.5042
▁cleaners	-11.5043
▁based	-11.5044
▁Kane	-11.5045
▁cower	-11.5045
▁rapped	-11.5047
▁splatter	-11.5048
▁BOO	-11.5052
▁youngin	-11.5053
▁guzzl	-11.5054
▁louder	-11.5054
▁Whoops	-11.5056
▁roast	-11.5057
▁flunk	-11.5057
▁homos	-11.5059
hearts	-11.5061
▁stealing	-11.5062
▁melting	-11.5064
▁Gun	-11.5065
▁nicer	-11.5066
voc	-11.5068
new	-11.5068
Sample	-11.5068
▁planned	-11.5069
▁grad	-11.5069
▁Tap	-11.5069
▁brush	-11.507
▁tickle	-11.507
▁wired	-11.5072
▁wench	-11.5073
▁esteem	-11.5074
▁Joyner	-11.5074
▁faces	-11.5077
▁surge	-11.5079
▁whooping	-11.5079
▁vacate	-11.508
▁Chang	-11.508
hahahaha	-11.5081
▁Flipp	-11.5081
izard	-11.5083
▁performing	-11.5083
▁Port	-11.5088
▁narrat	-11.5088
▁hater	-11.5089
erable	-11.509
ax	-11.5091
lon	-11.5094
▁charts	-11.5103
▁forced	-11.5103
▁vet	-11.5106
▁shoved	-11.5106
ocate	-11.5106
▁pipe	-11.5106
whippin	-11.5107
▁heads	-11.5109
▁Wal	-11.511
▁colon	-11.5111
▁leaning	-11.5111
▁Gar	-11.5112
▁tricks	-11.5113
▁tim	-11.5114
▁assert	-11.5115
▁calib	-11.5115
pot	-11.5117
ply	-11.5118
▁American	-11.512
azed	-11.5123
▁locker	-11.5123
tical	-11.5126
Goodbye	-11.5129
cul	-11.513
▁dumped	-11.5131
▁crashing	-11.5132
▁40-	-11.5133
▁ante	-11.5143
▁wiped	-11.5144
▁plums	-11.5146
▁sirens	-11.5146
▁punchlines	-11.5146
▁genitals	-11.5146
▁shades	-11.5146
▁scars	-11.5147
▁Banks	-11.5147
▁ordered	-11.5148
▁recent	-11.5151
▁screwed	-11.5152
▁checkin	-11.5154
▁buzzing	-11.5156
▁Rubb	-11.5157
was	-11.5158
▁Pace	-11.516
▁standards	-11.5163
ological	-11.5164
▁manage	-11.5165
▁mass	-11.5167
▁jumpin	-11.5167
men	-11.5168
▁fu	-11.5172
▁Kill	-11.5173
▁flyers	-11.5173
▁bleeding	-11.5174
▁cheated	-11.5177
made	-11.5177
▁fixed	-11.5179
▁coup	-11.5179
HEY	-11.5184
▁Die	-11.5188
Diddy	-11.519
▁umm	-11.5193
▁Lit	-11.5194
▁beefin	-11.5194
shirts	-11.5197
ath	-11.5197
▁hugg	-11.5198
▁thro	-11.5198
▁Line	-11.52
▁jer	-11.5201
▁Rack	-11.5204
innie	-11.5206
▁net	-11.5206
got	-11.5207
toe	-11.5208
gidy	-11.521
▁listenin	-11.5212
▁storming	-11.5214
roops	-11.5215
icadin	-11.5216
▁Mis	-11.5217
▁Gag	-11.5222
lez	-11.5223
▁hire	-11.5226
▁Fast	-11.5229
▁Rihanna	-11.5236
▁sweetie	-11.5241
▁minc	-11.5241
▁Kon	-11.5247
▁licked	-11.5258
▁expected	-11.5259
▁presidents	-11.5265
▁computers	-11.5265
▁plaques	-11.5265
▁whispers	-11.5265
▁emcees	-11.5265
▁partners	-11.5265
▁gangsters	-11.5265
▁restraint	-11.5266
▁beach	-11.5268
coat	-11.527
▁grit	-11.5272
▁rae	-11.5273
▁landed	-11.5274
▁liver	-11.528
iti	-11.5283
▁banger	-11.5285
▁Again	-11.5286
▁humo	-11.5298
▁nick	-11.5303
eenie	-11.5311
lute	-11.5315
▁scen	-11.5316
▁Marti	-11.5316
All	-11.532
▁driven	-11.5321
▁sleepy	-11.533
▁candles	-11.5333
▁dangle	-11.5334
ved	-11.5335
"[	-11.5338
-12	-11.5345
sual	-11.535
ama	-11.535
▁Stack	-11.5354
nounce	-11.5356
▁rais	-11.5358
▁mixing	-11.5367
▁spar	-11.5368
ensible	-11.5371
▁sending	-11.5371
▁sued	-11.5373
▁bark	-11.5374
▁Steph	-11.5375
▁hourglass	-11.5375
▁offers	-11.5376
mart	-11.5383
▁knots	-11.5384
▁cocksuckers	-11.5387
▁sue	-11.5388
▁core	-11.5389
lectric	-11.5392
▁nails	-11.5402
▁lever	-11.5407
▁Fact	-11.5408
ash	-11.5411
member	-11.5412
▁aff	-11.5413
ks	-11.5417
▁wink	-11.542
employe	-11.5432
▁although	-11.5432
▁Mel	-11.5433
▁padd	-11.5435
▁scratching	-11.544
roid	-11.5448
▁12	-11.5463
▁bottled	-11.5464
▁Jed	-11.5465
▁Dill	-11.5467
▁cy	-11.5473
▁medic	-11.5475
lad	-11.5486
atory	-11.5488
▁Indi	-11.549
▁flak	-11.5491
▁cuffs	-11.5496
cca	-11.5503
▁swearing	-11.5503
umming	-11.5506
▁sorts	-11.5508
▁eyeballs	-11.5508
▁gangstas	-11.551
▁twirls	-11.551
▁artists	-11.5511
order	-11.5518
▁Clinical	-11.553
▁violat	-11.5531
▁mist	-11.5532
ors	-11.5538
▁har	-11.5542
▁blocks	-11.5548
▁dealer	-11.5552
▁skit	-11.5558
icycle	-11.5561
get	-11.5569
han	-11.5576
0-	-11.5577
▁tame	-11.5587
▁ge	-11.559
▁recta	-11.5599
rash	-11.5606
mpact	-11.5609
▁worked	-11.5625
▁cords	-11.5629
▁wrists	-11.5635
▁degrees	-11.5635
▁aches	-11.5638
▁faithful	-11.5638
ters	-11.5643
▁soup	-11.5648
▁losers	-11.5649
▁Lives	-11.5657
▁clubs	-11.5661
▁sipp	-11.5678
rigger	-11.568
▁sticker	-11.5682
▁murderer	-11.5683
▁Mid	-11.5686
▁cra	-11.5692
▁gimm	-11.5693
lu	-11.5695
mos	-11.5703
▁term	-11.5707
stain	-11.5715
▁cracks	-11.5719
▁amateur	-11.5749
▁horses	-11.5751
eigh	-11.5754
ahhh	-11.5756
▁animals	-11.5763
wan	-11.5769
▁Kro	-11.5771
apped	-11.5772
▁ding	-11.5772
▁smoked	-11.5773
▁Str	-11.5776
▁meeting	-11.5778
▁sacrifice	-11.5784
▁desperat	-11.5792
▁Rid	-11.5805
rian	-11.5808
▁whi	-11.5809
oil	-11.581
▁Gra	-11.581
▁vers	-11.582
▁Mas	-11.5857
Hmm	-11.5859
ries	-11.5861
cine	-11.5864
vant	-11.5892
ipped	-11.5911
ids	-11.5927
▁dre	-11.5933
▁cracking	-11.5938
ill	-11.5941
eous	-11.5943
▁promot	-11.5949
▁comp	-11.5955
▁Digg	-11.5957
erate	-11.5971
▁led	-11.5983
ury	-11.5998
▁concerts	-11.6018
▁nightmares	-11.6023
wing	-11.6028
artridge	-11.6038
kins	-11.6039
▁birds	-11.6049
untle	-11.6049
urne	-11.6065
▁dri	-11.6068
▁formal	-11.6071
eers	-11.6076
▁pint	-11.6091
▁tho	-11.6102
▁cam	-11.611
eek	-11.612
cake	-11.6127
▁telly	-11.6128
▁opening	-11.6135
▁drippin	-11.6138
▁stinks	-11.6142
▁acknowledge	-11.6147
▁stations	-11.6151
eft	-11.6178
▁Bed	-11.6187
▁chopp	-11.6239
▁Tang	-11.6244
lang	-11.6252
▁dies	-11.6259
▁prob	-11.6265
▁books	-11.6279
▁Shi	-11.628
▁ends	-11.6285
▁Flyin	-11.6285
▁sal	-11.6288
▁cul	-11.6289
▁Justin	-11.6289
▁Ford	-11.6307
▁Spa	-11.6313
▁biting	-11.6333
▁damned	-11.6335
years	-11.6352
▁hom	-11.6366
▁Dal	-11.6369
pac	-11.6377
ripping	-11.6378
SK	-11.6384
▁burnt	-11.6394
inger	-11.6394
ker	-11.6403
spose	-11.6419
▁pistols	-11.6426
▁screws	-11.6429
▁scenes	-11.643
ude	-11.6435
tenth	-11.6467
reach	-11.6472
tray	-11.65
key	-11.6505
mus	-11.651
▁Com	-11.6527
uffle	-11.6527
▁usin	-11.653
▁fib	-11.6532
▁yack	-11.6547
tches	-11.6549
▁cor	-11.6585
▁Medi	-11.6594
con	-11.6596
▁tips	-11.6618
saneness	-11.6658
ime	-11.6659
▁rooms	-11.6666
▁wanting	-11.6674
arine	-11.6691
▁noises	-11.6705
zel	-11.6706
cy	-11.6706
rel	-11.6712
ji	-11.6729
ector	-11.6731
▁Fol	-11.6735
▁bobb	-11.6742
ure	-11.6756
▁cups	-11.6804
▁Fr	-11.6809
▁clinic	-11.6828
elling	-11.6835
▁Turns	-11.684
urf	-11.6846
eful	-11.6853
cada	-11.6856
▁bul	-11.6866
cked	-11.6877
she	-11.6884
▁Ble	-11.6899
▁Light	-11.69
atio	-11.6909
.."	-11.691
▁cares	-11.6919
eel	-11.6921
▁Alb	-11.6941
▁hyp	-11.696
phe	-11.6961
eth	-11.6976
▁emotional	-11.6983
wwww	-11.7013
▁Cos	-11.7025
▁vac	-11.7027
▁downer	-11.7057
▁ditch	-11.7064
▁Psycho	-11.7076
ci	-11.7092
▁ti	-11.7097
▁Alcohol	-11.71
▁br	-11.7109
nic	-11.7113
agged	-11.7169
▁wan	-11.7175
tum	-11.7183
dol	-11.719
▁col	-11.7201
▁spins	-11.7202
eezy	-11.7228
▁sk	-11.7268
rath	-11.7274
lan	-11.7275
▁criminals	-11.7288
▁hype	-11.7288
otic	-11.7299
ently	-11.7326
thr	-11.7333
ability	-11.7335
Clan	-11.7349
tops	-11.7358
▁brothers	-11.7437
cho	-11.7454
▁zan	-11.7459
cooked	-11.7492
umber	-11.7501
atch	-11.7502
▁urge	-11.7506
▁whoa	-11.7521
▁11	-11.7528
urt	-11.7531
blem	-11.7534
nope	-11.7538
▁Pin	-11.7545
OT	-11.7619
▁ven	-11.7659
▁Jon	-11.7666
ph	-11.7678
ightened	-11.7685
rious	-11.769
▁Pee	-11.7699
gal	-11.7699
▁seats	-11.773
▁mirrors	-11.7747
▁Wo	-11.7781
▁packs	-11.7818
▁teen	-11.7818
▁Kan	-11.7873
▁tone	-11.7874
▁ch	-11.789
uple	-11.7911
vo	-11.7913
uk	-11.7944
▁gy	-11.7947
cking	-11.7986
▁sprays	-11.8008
ab	-11.8008
tcha	-11.8028
Step	-11.8038
legic	-11.8053
▁dun	-11.8161
loo	-11.8176
ey	-11.8195
ride	-11.8199
ada	-11.8214
polar	-11.8226
eh	-11.8245
▁grabbin	-11.825
ome	-11.8255
believer	-11.8301
▁alo	-11.8314
ttle	-11.8321
ringer	-11.8324
unity	-11.8333
▁ninet	-11.8335
asin	-11.8341
rra	-11.835
▁uncle	-11.8357
mmy	-11.8372
▁Son	-11.8378
▁senses	-11.839
itted	-11.839
▁prem	-11.8392
▁Dress	-11.84
lf	-11.841
▁Nu	-11.8441
▁Hol	-11.8441
▁comma	-11.8445
▁Holt	-11.8477
▁holl	-11.849
ending	-11.8493
nation	-11.8507
▁wh	-11.8579
▁closin	-11.8586
▁Pic	-11.8597
io	-11.8601
▁shi	-11.8608
yer	-11.8621
ulate	-11.8632
▁hug	-11.8634
▁dub	-11.8666
arth	-11.8679
▁Fo	-11.8687
anned	-11.871
▁mac	-11.8711
tro	-11.8748
▁Rag	-11.8755
mbo	-11.8763
rong	-11.8763
two	-11.8765
itable	-11.8774
▁Wa	-11.8787
▁Che	-11.8789
okie	-11.879
▁Dir	-11.8801
ross	-11.8804
▁Hog	-11.8812
ffe	-11.8817
▁bore	-11.8825
play	-11.8832
ong	-11.8838
▁bru	-11.8854
ays	-11.8855
WA	-11.8862
enic	-11.8866
hhhhh	-11.888
rine	-11.8881
dent	-11.8899
▁IV	-11.8904
tty	-11.8905
▁Ge	-11.8907
lies	-11.8946
▁rubbin	-11.8962
ration	-11.8963
Do	-11.8989
ware	-11.8995
wings	-11.9003
▁Comin	-11.9007
▁refer	-11.9018
pho	-11.904
ially	-11.9047
nted	-11.9051
vin	-11.9063
holster	-11.9067
eck	-11.9068
dia	-11.9082
▁dogg	-11.9106
▁Trip	-11.9122
▁Chillin	-11.9123
▁reache	-11.9127
mar	-11.9137
nstantly	-11.9163
IC	-11.9171
▁gla	-11.9173
nia	-11.9173
tuned	-11.9175
riff	-11.9195
racy	-11.9211
minate	-11.9211
nighty	-11.9235
▁Sch	-11.926
bbed	-11.9261
tup	-11.9265
▁cuttin	-11.9265
▁Tro	-11.9266
▁Heath	-11.9269
PB	-11.9273
▁dec	-11.9278
immer	-11.9279
▁Fag	-11.9283
rely	-11.9289
▁DA	-11.9292
gainst	-11.9296
▁prec	-11.9312
▁sta	-11.9313
dge	-11.9331
▁chk	-11.9337
▁dwellin	-11.934
▁tra	-11.9342
Are	-11.9348
wee	-11.9349
ister	-11.9358
ater	-11.9371
ame	-11.9376
▁Sp	-11.9384
▁uni	-11.9395
ounce	-11.9408
▁plac	-11.9408
▁fri	-11.9411
tron	-11.9414
▁rains	-11.9427
▁shar	-11.9432
▁onion	-11.9457
▁steppin	-11.9466
▁Loc	-11.9468
▁Skip	-11.9491
inde	-11.9496
▁cont	-11.951
▁Wit	-11.952
▁Leg	-11.9537
ledge	-11.9542
nk	-11.9543
dig	-11.9566
urious	-11.9567
phone	-11.9577
thetic	-11.9581
erial	-11.9585
▁ope	-11.9588
▁sho	-11.9603
▁Jer	-11.9609
▁scar	-11.9612
oxic	-11.9614
▁ab	-11.9622
self	-11.9623
heart	-11.9639
agidy	-11.9645
▁jewel	-11.9646
▁accent	-11.9646
▁ticket	-11.965
olla	-11.965
▁rumor	-11.9651
▁adult	-11.9651
▁comic	-11.9652
▁crayon	-11.9653
▁echo	-11.9654
PS	-11.9656
rin	-11.9657
▁bubble	-11.9658
▁Holdin	-11.9663
▁puffin	-11.9665
▁tens	-11.9667
▁Drug	-11.9671
itch	-11.9674
align	-11.9676
▁genital	-11.9676
▁Bank	-11.9677
▁shade	-11.9679
▁plum	-11.968
▁punchline	-11.9683
▁syllable	-11.969
▁individual	-11.969
▁Trap	-11.9691
▁vow	-11.9691
▁standard	-11.9694
▁skeleton	-11.9702
▁twee	-11.9706
eating	-11.9707
▁siren	-11.971
▁dag	-11.9712
▁mug	-11.9716
Ow	-11.9717
▁vein	-11.9717
exter	-11.9718
sleep	-11.9721
▁par	-11.973
damnit	-11.9734
nnies	-11.9735
idi	-11.9742
▁officer	-11.9745
▁parent	-11.9748
▁reco	-11.9753
▁failin	-11.9753
signed	-11.9757
rough	-11.9762
▁War	-11.9766
▁burg	-11.9769
▁Tryin	-11.9772
ssert	-11.9774
▁turd	-11.9775
▁Hopin	-11.9777
lum	-11.9779
pul	-11.9779
▁beggin	-11.9786
eros	-11.9787
ttention	-11.9789
obbing	-11.979
▁surg	-11.98
eni	-11.9807
▁sometime	-11.9808
▁Shh	-11.9809
▁curs	-11.981
▁lickin	-11.9817
ozo	-11.9819
▁kno	-11.9821
▁weigh	-11.9824
apping	-11.9828
▁Chan	-11.9829
▁spi	-11.9829
nything	-11.983
angle	-11.9831
escend	-11.9833
▁ignite	-11.9841
work	-11.9843
Yea	-11.9846
▁fantas	-11.9846
IT	-11.9848
deci	-11.9848
▁vaca	-11.9848
cock	-11.985
▁backward	-11.9851
▁asphyxia	-11.9853
views	-11.9855
▁liter	-11.9856
tails	-11.9858
▁Dig	-11.9859
whe	-11.986
ction	-11.986
ggling	-11.9865
gram	-11.9869
ocal	-11.9872
▁tortur	-11.9877
craft	-11.988
Leg	-11.9881
rut	-11.9883
act	-11.9883
▁tickin	-11.9884
dancer	-11.9887
▁stat	-11.9887
seat	-11.9887
liver	-11.9888
Sarah	-11.9888
loathing	-11.9888
Notorious	-11.9888
shadow	-11.9888
Psycho	-11.9889
Meet	-11.9889
rope	-11.9891
Round	-11.9891
Kendrick	-11.9892
solution	-11.9892
Relapse	-11.9892
rupt	-11.9892
▁pier	-11.9893
Sound	-11.9893
▁unit	-11.9894
▁roa	-11.9895
Fire	-11.9895
Godzilla	-11.9896
Police	-11.9896
chorus	-11.9896
connect	-11.9896
Angel	-11.9896
Buffa	-11.9896
wick	-11.9896
Help	-11.9896
field	-11.9897
mommy	-11.9897
Bang	-11.9897
ugger	-11.9897
Eric	-11.9897
kiss	-11.9897
strange	-11.9897
bump	-11.9898
switch	-11.9898
introduce	-11.9898
platinum	-11.9898
witness	-11.9899
street	-11.9899
drops	-11.9899
faggot	-11.9899
Detroit	-11.9899
thousand	-11.99
human	-11.99
with	-11.99
write	-11.99
throat	-11.99
Life	-11.99
Okay	-11.99
Hip	-11.99
butter	-11.99
straight	-11.99
Rock	-11.99
first	-11.99
Wait	-11.99
With	-11.99
Haha	-11.9901
house	-11.9901
vocal	-11.9901
Day	-11.9901
Doc	-11.9901
Tell	-11.9902
rise	-11.9902
May	-11.9902
three	-11.9902
agree	-11.9903
pool	-11.9903
▁bowl	-11.9903
bow	-11.9903
horn	-11.9904
▁uz	-11.9904
bb	-11.9904
park	-11.9904
Six	-11.9905
Too	-11.9905
aware	-11.9905
Love	-11.9906
ado	-11.9906
Boy	-11.9906
block	-11.9906
▁flirt	-11.9907
▁convuls	-11.9907
▁occur	-11.9907
Back	-11.9907
sucker	-11.9908
▁envision	-11.9908
▁imitat	-11.9908
▁bob	-11.9909
Big	-11.9909
very	-11.9909
baby	-11.9911
▁rug	-11.9912
▁interest	-11.9913
ouble	-11.9914
echo	-11.9914
▁Part	-11.9916
▁flyer	-11.9916
awk	-11.9916
▁strik	-11.9916
▁defens	-11.9916
elope	-11.9917
find	-11.9917
▁Scream	-11.9917
▁continu	-11.9918
rock	-11.9919
▁unde	-11.9919
Now	-11.992
▁alter	-11.9921
▁statu	-11.9922
▁drain	-11.9923
▁desert	-11.9924
▁plea	-11.9925
▁graduate	-11.9927
grad	-11.9927
▁discover	-11.9928
finger	-11.9928
▁Ki	-11.9929
▁combine	-11.993
ground	-11.993
dope	-11.993
▁Insane	-11.9934
Rea	-11.9936
been	-11.9936
Can	-11.9936
▁wobbl	-11.9938
Joe	-11.9939
Talk	-11.9941
rich	-11.9941
iser	-11.9943
▁clea	-11.9943
▁Temp	-11.9944
▁laundr	-11.9945
▁thirst	-11.9945
▁wealth	-11.9945
▁Mayb	-11.9946
orphin	-11.9946
role	-11.9946
▁tint	-11.9947
▁suppl	-11.9947
▁fift	-11.9947
known	-11.9947
▁debate	-11.9948
▁wad	-11.9949
loy	-11.9949
Chu	-11.9951
ddler	-11.9951
▁apparent	-11.9951
▁Flash	-11.9952
▁warp	-11.9952
▁Complete	-11.9952
▁quadr	-11.9952
four	-11.9953
else	-11.9954
▁expla	-11.9954
dong	-11.9954
mouth	-11.9955
ellin	-11.9955
▁crumb	-11.9956
BLA	-11.9956
oogie	-11.9956
▁yea	-11.9958
▁rhymin	-11.9959
izarre	-11.9959
▁Brad	-11.9959
▁direct	-11.9959
▁ceilin	-11.9959
▁conven	-11.9959
▁anti	-11.9959
▁wavin	-11.9959
won	-11.996
▁abort	-11.9961
▁cynic	-11.9961
▁lightnin	-11.9961
▁Office	-11.9961
give	-11.9961
uccess	-11.9961
▁origin	-11.9961
nsion	-11.9961
▁shoppin	-11.9962
trength	-11.9962
Or	-11.9962
onscience	-11.9963
onversation	-11.9963
▁trippin	-11.9963
▁griev	-11.9963
econd	-11.9963
nspir	-11.9963
▁regard	-11.9963
isrespect	-11.9964
ifferent	-11.9964
erfect	-11.9964
▁chron	-11.9964
tub	-11.9964
ternet	-11.9964
▁trait	-11.9964
▁experi	-11.9964
repare	-11.9965
eign	-11.9965
▁Pep	-11.9965
erati	-11.9965
uthanasia	-11.9965
▁Negli	-11.9965
▁discriminat	-11.9965
▁eyebrow	-11.9965
nflict	-11.9965
▁African	-11.9965
▁Islamic	-11.9965
▁McCo	-11.9965
▁Ukrain	-11.9965
▁flavor	-11.9965
▁specific	-11.9965
▁unleash	-11.9965
-9-9-	-11.9965
DMC	-11.9965
EEEEE	-11.9965
TRUCE	-11.9965
Thriller	-11.9965
appropriate	-11.9965
dependent	-11.9965
elinquent	-11.9965
eservoir	-11.9965
heimer	-11.9965
igraines	-11.9965
kabob	-11.9965
nosaur	-11.9965
nstigator	-11.9965
ochondria	-11.9965
ograph	-11.9965
responsibilities	-11.9965
ticipate	-11.9965
wagon	-11.9965
zilch	-11.9965
▁******	-11.9965
▁Adrenaline	-11.9965
▁Afghan	-11.9965
▁Anthony	-11.9965
▁April	-11.9965
▁Avenue	-11.9965
▁Banner	-11.9965
▁Benjamin	-11.9965
▁Beyond	-11.9965
▁Buttersworth	-11.9965
▁Canibus	-11.9965
▁Charlamagne	-11.9965
▁Collect	-11.9965
▁Columbia	-11.9965
▁Crenshaw	-11.9965
▁Critics	-11.9965
▁Dakota	-11.9965
▁Demonic	-11.9965
▁Disgr	-11.9965
▁Egyptian	-11.9965
▁Florida	-11.9965
▁Halloween	-11.9965
▁Hennessey	-11.9965
▁Hooray	-11.9965
▁Hpnoti	-11.9965
▁Hypnotic	-11.9965
▁Ivanka	-11.9965
▁JLB	-11.9965
▁Jekyll	-11.9965
▁Jennifer	-11.9965
▁Jordans	-11.9965
▁Kaepernick	-11.9965
▁Keith	-11.9965
▁Kolonopins	-11.9965
▁Label	-11.9965
▁Lucifer	-11.9965
▁Luthor	-11.9965
▁Lysol	-11.9965
▁MGK	-11.9965
▁Macklemore	-11.9965
▁Marcus	-11.9965
▁Mitsubishi	-11.9965
▁Molotov	-11.9965
▁Montana	-11.9965
▁Muhammad	-11.9965
▁NASCAR	-11.9965
▁Ndamukong	-11.9965
▁Neosporin	-11.9965
▁Pamela	-11.9965
▁Pocket	-11.9965
▁Practicin	-11.9965
▁Predominantly	-11.9965
▁Puppet	-11.9965
▁Ramirez	-11.9965
▁Rhym	-11.9965
▁Spiral	-11.9965
▁Sponge	-11.9965
▁Stefani	-11.9965
▁Styrofoam	-11.9965
▁Surprised	-11.9965
▁Suzanne	-11.9965
▁THAT	-11.9965
▁Tampax	-11.9965
▁Tanya	-11.9965
▁Teacher	-11.9965
▁Terror	-11.9965
▁Translation	-11.9965
▁Winehouse	-11.9965
▁YouTube	-11.9965
▁acquainted	-11.9965
▁adjacent	-11.9965
▁affiliated	-11.9965
▁ammunition	-11.9965
▁angrier	-11.9965
▁antidote	-11.9965
▁anvil	-11.9965
▁appalled	-11.9965
▁appliance	-11.9965
▁arrangements	-11.9965
▁authentic	-11.9965
▁available	-11.9965
▁bartender	-11.9965
▁bedspread	-11.9965
▁binoculars	-11.9965
▁blossom	-11.9965
▁boulder	-11.9965
▁bravado	-11.9965
▁breastfeed	-11.9965
▁cabbage	-11.9965
▁caboose	-11.9965
▁cantaloupe	-11.9965
▁canvas	-11.9965
▁capacity	-11.9965
▁circumstance	-11.9965
▁clique	-11.9965
▁cobwebs	-11.9965
▁cocaine	-11.9965
▁coffee	-11.9965
▁conceited	-11.9965
▁confess	-11.9965
▁conquest	-11.9965
▁counseling	-11.9965
▁counselor	-11.9965
▁criticize	-11.9965
▁crusader	-11.9965
▁cunnilingus	-11.9965
▁custom	-11.9965
▁daydream	-11.9965
▁dedicate	-11.9965
▁degenerate	-11.9965
▁delusion	-11.9965
▁demolished	-11.9965
▁deterior	-11.9965
▁devoted	-11.9965
▁diabetic	-11.9965
▁dialect	-11.9965
▁diarrhea	-11.9965
▁diligently	-11.9965
▁disfigured	-11.9965
▁eggshells	-11.9965
▁elementary	-11.9965
▁encounter	-11.9965
▁enthusiasm	-11.9965
▁envelope	-11.9965
▁epiphany	-11.9965
▁evangelist	-11.9965
▁evident	-11.9965
▁execut	-11.9965
▁exorcis	-11.9965
▁expense	-11.9965
▁extort	-11.9965
▁fabricate	-11.9965
▁freestylin	-11.9965
▁gasoline	-11.9965
▁giraffe	-11.9965
▁gluteus	-11.9965
▁glutton	-11.9965
▁guitar	-11.9965
▁hallucinat	-11.9965
▁hallucinogen	-11.9965
▁helmet	-11.9965
▁hindsight	-11.9965
▁horrible	-11.9965
▁horror	-11.9965
▁hydrant	-11.9965
▁hydro	-11.9965
▁icepick	-11.9965
▁identical	-11.9965
▁illegal	-11.9965
▁include	-11.9965
▁incomplete	-11.9965
▁intimidat	-11.9965
▁intruder	-11.9965
▁irritated	-11.9965
▁juggernaut	-11.9965
▁koala	-11.9965
▁ligaments	-11.9965
▁limousine	-11.9965
▁lithium	-11.9965
▁lobster	-11.9965
▁lumberjack	-11.9965
▁major	-11.9965
▁masturbat	-11.9965
▁methamphetamine	-11.9965
▁microwave	-11.9965
▁misfits	-11.9965
▁mislead	-11.9965
▁misogynist	-11.9965
▁monotony	-11.9965
▁mutherfucker	-11.9965
▁nemesis	-11.9965
▁nostalgia	-11.9965
▁nuisance	-11.9965
▁obituary	-11.9965
▁obnoxious	-11.9965
▁obscene	-11.9965
▁occasion	-11.9965
▁ointment	-11.9965
▁outweigh	-11.9965
▁overwhelm	-11.9965
▁parrot	-11.9965
▁particular	-11.9965
▁patriot	-11.9965
▁percocet	-11.9965
▁persistent	-11.9965
▁perspire	-11.9965
▁pessimist	-11.9965
▁poverty	-11.9965
▁predicament	-11.9965
▁privilege	-11.9965
▁rampage	-11.9965
▁rascal	-11.9965
▁rebuild	-11.9965
▁reefer	-11.9965
▁relieve	-11.9965
▁reputation	-11.9965
▁reserved	-11.9965
▁ribs	-11.9965
▁routine	-11.9965
▁sailor	-11.9965
▁sauna	-11.9965
▁sausage	-11.9965
▁seatbelt	-11.9965
▁segregat	-11.9965
▁seizure	-11.9965
▁shambles	-11.9965
▁shrub	-11.9965
▁siphon	-11.9965
▁slope	-11.9965
▁squeal	-11.9965
▁stumbling	-11.9965
▁succubus	-11.9965
▁swirl	-11.9965
▁syringe	-11.9965
▁tarantula	-11.9965
▁thyroid	-11.9965
▁trampoline	-11.9965
▁tremendous	-11.9965
▁typhoon	-11.9965
▁unaccommodating	-11.9965
▁undeniable	-11.9965
▁unlocked	-11.9965
▁unstoppable	-11.9965
▁vacuum	-11.9965
▁valley	-11.9965
▁vegetable	-11.9965
▁veteran	-11.9965
▁victory	-11.9965
▁wardrobe	-11.9965
▁womb	-11.9965
▁zonin	-11.9965
▁cassette	-11.9965
▁degrade	-11.9965
krrt	-11.9965
phrase	-11.9965
▁Colorado	-11.9965
▁Creator	-11.9965
▁Doubt	-11.9965
▁Octo	-11.9965
▁Pryor	-11.9965
▁Republic	-11.9965
▁Spears	-11.9965
▁Third	-11.9965
▁dammit	-11.9965
▁debacle	-11.9965
▁demeano	-11.9965
▁detention	-11.9965
▁gunfight	-11.9965
▁hibernat	-11.9965
▁inflicted	-11.9965
▁injection	-11.9965
▁knit	-11.9965
▁rearrang	-11.9965
▁relative	-11.9965
▁spectacular	-11.9965
▁virgin	-11.9965
icochet	-11.9965
▁Excedrin	-11.9965
▁Ramsey	-11.9965
▁acrobat	-11.9965
▁applaud	-11.9965
▁bargain	-11.9965
▁chunks	-11.9965
▁dyke	-11.9965
▁groove	-11.9965
▁martian	-11.9965
▁spatula	-11.9965
▁stumped	-11.9965
▁testicles	-11.9965
▁tradition	-11.9965
▁width	-11.9965
olphin	-11.9965
speare	-11.9965
xpensive	-11.9965
▁Asgard	-11.9965
▁bronze	-11.9965
▁floss	-11.9965
▁insecurities	-11.9965
▁Honest	-11.9965
▁Kahl	-11.9965
▁Search	-11.9965
▁empath	-11.9965
▁sensation	-11.9965
Jamaica	-11.9965
nergize	-11.9965
▁brutal	-11.9965
▁kinky	-11.9965
▁mimic	-11.9965
▁paranoi	-11.9965
▁whinin	-11.9965
vula	-11.9965
▁Adrian	-11.9965
▁Harle	-11.9965
▁alligator	-11.9965
▁dehydrat	-11.9965
▁device	-11.9965
▁pollut	-11.9965
▁splinter	-11.9965
▁Ledger	-11.9965
▁Promis	-11.9965
▁Stanabis	-11.9965
▁puzzle	-11.9965
▁staircase	-11.9965
hazard	-11.9965
nnovative	-11.9965
ologna	-11.9965
▁Attila	-11.9965
▁Speak	-11.9965
▁devour	-11.9965
▁explosion	-11.9965
▁lecture	-11.9965
▁mercy	-11.9965
▁penetrat	-11.9965
Gandhi	-11.9965
▁antacid	-11.9965
▁insomnia	-11.9965
▁thump	-11.9965
▁vague	-11.9965
▁Ninja	-11.9965
▁grandkids	-11.9965
▁graphic	-11.9965
▁misunderstood	-11.9965
▁pepper	-11.9965
▁Memory	-11.9965
▁feud	-11.9965
▁Ryan	-11.9965
▁account	-11.9965
▁mammals	-11.9965
▁nitro	-11.9965
▁scanner	-11.9965
▁stove	-11.9965
▁Causin	-11.9965
▁Wicked	-11.9965
▁license	-11.9965
▁bribe	-11.9965
▁evolve	-11.9965
▁frog	-11.9965
▁mejor	-11.9965
▁pedest	-11.9965
▁worn	-11.9965
▁Elevat	-11.9965
▁drywall	-11.9965
▁flaunt	-11.9965
▁Orange	-11.9965
▁carcass	-11.9965
▁confront	-11.9965
▁implants	-11.9965
▁sneeze	-11.9965
▁snooze	-11.9965
▁unplugg	-11.9965
quama	-11.9965
▁Channel	-11.9965
▁saliva	-11.9965
gulp	-11.9965
ombocla	-11.9965
▁Command	-11.9965
▁ashamed	-11.9965
▁surface	-11.9965
▁suspens	-11.9965
itchfork	-11.9965
▁cornea	-11.9965
▁telephone	-11.9965
▁ornament	-11.9965
oprano	-11.9965
▁Brook	-11.9965
▁Dead	-11.9965
▁administ	-11.9965
▁turkey	-11.9965
aniel	-11.9965
▁brawn	-11.9965
▁cheddar	-11.9965
▁confusing	-11.9965
▁serum	-11.9965
ridden	-11.9965
▁babysitter	-11.9965
▁leech	-11.9965
▁substitute	-11.9965
▁yep	-11.9965
empowerment	-11.9965
▁Renee	-11.9965
▁advers	-11.9965
▁append	-11.9965
▁drool	-11.9965
▁squish	-11.9965
▁vain	-11.9965
▁hypnotis	-11.9965
▁pigeon	-11.9965
▁wizardry	-11.9965
▁fictitio	-11.9965
▁intentionally	-11.9965
▁knives	-11.9965
▁resentment	-11.9965
▁sedan	-11.9965
▁ARF	-11.9965
▁advancement	-11.9965
▁declare	-11.9965
▁reveal	-11.9965
nconditionally	-11.9965
▁oven	-11.9965
▁plung	-11.9965
▁slaughterhouse	-11.9965
izzard	-11.9965
▁express	-11.9965
▁Blank	-11.9965
▁fetch	-11.9965
▁interrupt	-11.9965
▁pennies	-11.9965
▁contract	-11.9965
▁everlast	-11.9965
▁minimal	-11.9965
▁psychopath	-11.9965
▁streak	-11.9965
rrito	-11.9965
▁financial	-11.9965
bulation	-11.9965
▁Exact	-11.9965
▁VCR	-11.9965
▁accelerate	-11.9965
▁deceitful	-11.9965
▁motto	-11.9965
▁tenderness	-11.9965
▁Snake	-11.9965
▁ribb	-11.9965
▁suggest	-11.9965
▁taxi	-11.9965
▁2001	-11.9965
istorted	-11.9965
▁marinate	-11.9965
▁pawn	-11.9965
▁rhin	-11.9965
▁snoop	-11.9965
ponsor	-11.9965
▁Cheney	-11.9965
▁blueprint	-11.9965
▁draft	-11.9965
▁inflatable	-11.9965
▁pursue	-11.9965
▁Friend	-11.9965
▁boundaries	-11.9965
▁rejects	-11.9965
▁resuscitate	-11.9965
▁rhythm	-11.9965
▁syphilis	-11.9965
▁revolver	-11.9965
▁temperature	-11.9965
▁venue	-11.9965
▁Kidnapp	-11.9965
▁devis	-11.9965
▁flinch	-11.9965
▁dismiss	-11.9965
▁resist	-11.9965
▁silence	-11.9965
▁hungover	-11.9965
▁politician	-11.9965
▁baddest	-11.9965
▁descent	-11.9965
▁edible	-11.9965
▁chauffe	-11.9965
curred	-11.9965
▁bidet	-11.9965
▁disturb	-11.9965
▁intestin	-11.9966
▁psychi	-11.9966
▁Uzi	-11.9966
▁visor	-11.9966
▁patron	-11.9966
▁intervention	-11.9966
▁baseball	-11.9966
▁senior	-11.9966
▁grandmother	-11.9966
BAY	-11.9966
▁mockingbird	-11.9966
▁required	-11.9966
▁Lugz	-11.9966
▁Somehow	-11.9966
▁phenomen	-11.9966
▁plumber	-11.9966
▁aleck	-11.9966
▁menstrual	-11.9966
▁Swish	-11.9966
lihood	-11.9966
mprison	-11.9966
▁Sweden	-11.9966
▁skank	-11.9966
▁Garden	-11.9966
▁facade	-11.9966
▁flaw	-11.9966
nesia	-11.9966
▁spaz	-11.9966
▁transvestite	-11.9966
ntergala	-11.9966
▁bystanders	-11.9966
▁Motel	-11.9966
▁hesitate	-11.9966
▁Happ	-11.9966
▁blaring	-11.9966
▁cougar	-11.9966
▁apron	-11.9966
Toc	-11.9966
▁congress	-11.9966
▁doomed	-11.9966
▁sideways	-11.9966
pellet	-11.9966
▁prostitute	-11.9966
▁Nelly	-11.9966
▁Rae	-11.9966
▁decade	-11.9966
▁Whack	-11.9966
▁crystal	-11.9966
▁Lexus	-11.9966
▁salivate	-11.9966
scape	-11.9966
▁slot	-11.9966
▁receivin	-11.9966
▁unconscious	-11.9966
▁Pharmaceuticals	-11.9966
▁bladder	-11.9966
▁bask	-11.9966
▁brink	-11.9966
▁nickel	-11.9966
rocious	-11.9966
▁Buzz	-11.9966
espicable	-11.9966
▁canib	-11.9966
▁alien	-11.9966
▁Magnum	-11.9966
▁display	-11.9966
▁demi	-11.9966
▁gloom	-11.9966
▁grey	-11.9966
▁sedative	-11.9966
▁Slipped	-11.9966
▁sayonara	-11.9966
▁shelter	-11.9966
rrect	-11.9966
actus	-11.9966
▁oxi	-11.9966
▁Christian	-11.9966
▁cleaver	-11.9966
▁vicious	-11.9966
▁beaut	-11.9966
▁praise	-11.9966
▁sixteen	-11.9966
▁Bishop	-11.9966
▁codeine	-11.9966
▁icicle	-11.9966
▁instinct	-11.9966
▁pulse	-11.9966
▁manslaughter	-11.9966
▁volcano	-11.9966
▁chokehold	-11.9966
Nightmare	-11.9966
▁hound	-11.9966
▁Great	-11.9966
▁crossroad	-11.9966
▁waitress	-11.9966
▁phat	-11.9967
▁splat	-11.9967
▁phil	-11.9967
▁infatuat	-11.9967
▁interven	-11.9967
▁hysterical	-11.9967
▁medication	-11.9967
▁symptom	-11.9967
▁Central	-11.9967
▁option	-11.9967
▁manners	-11.9967
▁snack	-11.9967
▁vacant	-11.9967
sperger	-11.9967
▁repair	-11.9967
▁scru	-11.9967
scaping	-11.9967
▁surgery	-11.9967
▁Miller	-11.9967
▁supper	-11.9967
▁diner	-11.9967
▁probation	-11.9967
▁tactical	-11.9967
▁nerd	-11.9967
▁roaches	-11.9967
▁saran	-11.9967
▁Luda	-11.9967
▁separation	-11.9967
▁stank	-11.9967
▁Alert	-11.9967
ility	-11.9967
▁boring	-11.9967
▁torment	-11.9967
▁recovered	-11.9967
▁traitor	-11.9967
integr	-11.9967
▁merci	-11.9967
▁foam	-11.9967
▁Wheel	-11.9967
eenact	-11.9967
washin	-11.9967
▁silver	-11.9967
▁clone	-11.9967
▁Atkins	-11.9967
▁demonstrat	-11.9967
▁wordplay	-11.9967
LOW	-11.9967
▁mount	-11.9967
parasite	-11.9967
▁.4	-11.9967
▁backstabbing	-11.9967
▁trace	-11.9967
▁March	-11.9967
ricken	-11.9967
▁Latter	-11.9967
▁feather	-11.9967
▁Drama	-11.9967
▁Klum	-11.9967
▁uncomfortable	-11.9967
▁scalpel	-11.9968
▁2000	-11.9968
▁crip	-11.9968
lanta	-11.9968
▁headlock	-11.9968
▁flap	-11.9968
▁censor	-11.9968
▁acres	-11.9968
▁scum	-11.9968
▁exhaustive	-11.9968
▁quake	-11.9968
▁Common	-11.9968
▁Night	-11.9968
▁freezing	-11.9968
▁Silv	-11.9968
▁Bubba	-11.9968
▁whine	-11.9968
WOO	-11.9968
equat	-11.9968
▁Thanksgiving	-11.9968
▁Crist	-11.9968
▁scam	-11.9968
▁recite	-11.9968
▁Klan	-11.9968
axil	-11.9968
▁pacing	-11.9968
▁Bronco	-11.9968
▁anthem	-11.9968
▁windpipe	-11.9968
▁disrespectful	-11.9968
▁spoon	-11.9968
▁Patrick	-11.9968
▁adios	-11.9968
▁casa	-11.9968
▁fancy	-11.9968
▁delight	-11.9968
▁reload	-11.9968
▁irre	-11.9968
][*	-11.9968
azoo	-11.9968
▁grater	-11.9968
▁contemplating	-11.9968
▁Free	-11.9968
▁Mother	-11.9968
▁felonies	-11.9968
▁gutter	-11.9968
▁2010	-11.9968
▁donuts	-11.9969
▁seance	-11.9969
▁nursery	-11.9969
logy	-11.9969
▁shredder	-11.9969
▁Chuck	-11.9969
▁bloodstain	-11.9969
▁Taco	-11.9969
culate	-11.9969
utmos	-11.9969
▁success	-11.9969
▁mixture	-11.9969
▁tiger	-11.9969
▁tangled	-11.9969
▁Count	-11.9969
▁scri	-11.9969
▁Unabomber	-11.9969
rizon	-11.9969
▁rumble	-11.9969
▁dippin	-11.9969
ophone	-11.9969
▁Mind	-11.9969
clack	-11.9969
▁popcorn	-11.9969
▁cynical	-11.9969
▁gallon	-11.9969
undred	-11.9969
▁Vol	-11.9969
▁therapy	-11.9969
▁bride	-11.997
▁riddle	-11.997
▁sector	-11.997
▁Violen	-11.997
▁jackass	-11.997
▁Moby	-11.997
▁Sub	-11.997
▁indeed	-11.997
▁stale	-11.997
▁pong	-11.997
ntellect	-11.997
iler	-11.997
▁Mitch	-11.997
▁Butterf	-11.997
▁Fight	-11.997
▁Abus	-11.997
▁bassine	-11.997
▁Burp	-11.997
▁tumble	-11.997
▁span	-11.997
▁playground	-11.997
▁Jude	-11.997
▁imagination	-11.997
▁Compl	-11.997
neak	-11.997
oyage	-11.997
▁legal	-11.997
▁geez	-11.997
inute	-11.9971
▁boat	-11.9971
▁bald	-11.9971
▁vul	-11.9971
▁Jill	-11.9971
elfare	-11.9971
▁Milk	-11.9971
▁revel	-11.9971
▁relay	-11.9971
Crack	-11.9971
▁bandage	-11.9971
▁wiling	-11.9971
▁lemon	-11.9971
▁naive	-11.9971
▁tribe	-11.9971
▁Daniel	-11.9971
▁collid	-11.9971
▁199	-11.9971
▁psy	-11.9971
▁slack	-11.9971
▁cancel	-11.9971
▁techno	-11.9971
▁optic	-11.9971
▁staple	-11.9971
▁hatch	-11.9971
▁hind	-11.9972
▁buff	-11.9972
▁attractive	-11.9972
▁handgun	-11.9972
▁consideration	-11.9972
udio	-11.9972
▁Puma	-11.9972
ashing	-11.9972
▁authority	-11.9972
▁section	-11.9972
▁anxious	-11.9972
▁nutsack	-11.9972
▁tush	-11.9972
▁Servi	-11.9972
▁Internet	-11.9972
▁identity	-11.9972
▁hike	-11.9972
▁delivery	-11.9972
▁ballsack	-11.9972
anza	-11.9972
bular	-11.9972
▁gush	-11.9972
▁robbery	-11.9972
ulous	-11.9972
rior	-11.9973
▁OUT	-11.9973
▁barri	-11.9973
▁Jamar	-11.9973
gnant	-11.9973
▁Chas	-11.9973
Kate	-11.9973
▁Sung	-11.9973
▁Beam	-11.9973
▁chokin	-11.9973
▁scan	-11.9973
▁Trash	-11.9973
▁Service	-11.9973
▁Squi	-11.9973
▁mutt	-11.9973
belief	-11.9973
▁munch	-11.9973
▁Bald	-11.9973
nabis	-11.9973
▁Boogie	-11.9974
amic	-11.9974
▁Adam	-11.9974
▁refill	-11.9974
▁practice	-11.9974
▁childish	-11.9974
▁gourd	-11.9974
▁shockin	-11.9974
ilent	-11.9974
▁XL	-11.9974
▁wreckage	-11.9974
▁title	-11.9974
▁Bono	-11.9974
▁Gotti	-11.9974
▁reins	-11.9975
▁spat	-11.9975
▁impression	-11.9975
stika	-11.9975
upri	-11.9975
▁Code	-11.9975
▁perk	-11.9975
▁pear	-11.9975
▁painkiller	-11.9975
▁household	-11.9975
▁bangin	-11.9975
atrick	-11.9975
ET	-11.9975
Rah	-11.9975
rag	-11.9975
▁transform	-11.9975
▁Russ	-11.9976
▁Year	-11.9976
▁crapping	-11.9976
▁Harry	-11.9976
▁Thor	-11.9976
erog	-11.9976
▁Wind	-11.9976
BT	-11.9976
▁rott	-11.9976
▁drawings	-11.9976
▁Serious	-11.9976
ello	-11.9976
▁Chev	-11.9976
▁Rott	-11.9977
▁bulk	-11.9977
▁payback	-11.9977
▁puddle	-11.9977
mester	-11.9977
stilts	-11.9977
▁vice	-11.9977
▁wax	-11.9977
ytale	-11.9977
▁quadra	-11.9978
▁Jenn	-11.9978
▁Anus	-11.9978
▁globe	-11.9978
sept	-11.9978
▁North	-11.9978
▁deeds	-11.9978
▁mural	-11.9978
▁saga	-11.9978
▁coop	-11.9979
▁floo	-11.9979
▁Sweat	-11.9979
▁outlaw	-11.9979
▁tack	-11.9979
▁apparently	-11.9979
▁expired	-11.9979
▁Rush	-11.9979
icide	-11.9979
▁ranch	-11.9979
▁Paper	-11.9979
▁transmit	-11.998
Ken	-11.998
advert	-11.998
gious	-11.998
▁Propa	-11.998
ential	-11.998
▁attraction	-11.998
▁tripping	-11.998
▁smartest	-11.998
▁bigot	-11.998
▁Cappa	-11.998
▁19	-11.998
▁screwin	-11.9981
▁occurred	-11.9981
erci	-11.9981
▁mushed	-11.9981
▁accomplished	-11.9981
▁brainwashed	-11.9981
▁micro	-11.9981
▁digger	-11.9981
▁hach	-11.9981
reckle	-11.9981
TO	-11.9981
▁slain	-11.9981
▁Kong	-11.9981
▁Beca	-11.9982
▁Buil	-11.9982
▁Yet	-11.9982
pret	-11.9982
▁robbed	-11.9982
▁Defi	-11.9982
separa	-11.9983
▁legally	-11.9983
▁truthful	-11.9983
▁slippe	-11.9983
▁gambl	-11.9983
univers	-11.9983
▁indulge	-11.9983
▁daze	-11.9983
▁grandma	-11.9984
▁golden	-11.9984
▁Kha	-11.9984
▁Lions	-11.9984
▁fever	-11.9984
▁wrestler	-11.9985
▁defend	-11.9985
brained	-11.9985
▁slave	-11.9985
alifi	-11.9985
▁laundry	-11.9985
▁thirsty	-11.9985
▁wealthy	-11.9985
▁Brady	-11.9985
▁Party	-11.9985
ANT	-11.9985
▁weaken	-11.9986
agle	-11.9986
whipping	-11.9986
▁hoist	-11.9986
arren	-11.9986
▁Beav	-11.9986
▁Levy	-11.9986
▁complicating	-11.9986
▁reminiscing	-11.9986
▁icon	-11.9987
▁max	-11.9987
▁Lamb	-11.9987
▁moral	-11.9987
▁flier	-11.9987
▁intoxicat	-11.9987
▁Styl	-11.9988
▁butterfl	-11.9988
▁protection	-11.9988
esurrect	-11.9988
jones	-11.9988
▁Beast	-11.9988
▁dummy	-11.9988
▁rally	-11.9989
▁Spell	-11.9989
▁cleansed	-11.9989
▁mashin	-11.9989
▁mate	-11.9989
▁insist	-11.999
opez	-11.999
▁Enc	-11.999
▁dragon	-11.999
▁brag	-11.999
eneral	-11.9991
▁backstage	-11.9991
▁foes	-11.9991
▁cocktail	-11.9991
▁trample	-11.9991
▁preach	-11.9991
shield	-11.9991
cor	-11.9991
start	-11.9991
▁frighten	-11.9991
Un	-11.9992
nemy	-11.9992
▁pointless	-11.9992
▁wobble	-11.9992
▁pow	-11.9992
▁jerkin	-11.9993
▁Tale	-11.9993
xy	-11.9993
▁hedge	-11.9993
dun	-11.9994
▁inva	-11.9994
▁react	-11.9994
▁dug	-11.9994
▁Bending	-11.9994
▁Budd	-11.9995
▁escalated	-11.9995
▁hustler	-11.9995
▁dial	-11.9995
▁lesson	-11.9995
SM	-11.9995
▁Fel	-11.9996
▁Lex	-11.9996
▁appointment	-11.9996
▁establish	-11.9996
▁Definitely	-11.9996
▁Infinite	-11.9996
▁Rabbit	-11.9996
▁attorney	-11.9996
▁rabbits	-11.9996
▁Goddamn	-11.9996
▁Eazy	-11.9996
▁Compton	-11.9996
▁Outsidaz	-11.9996
▁Attack	-11.9996
▁zipper	-11.9996
▁conscious	-11.9996
▁pedal	-11.9996
▁Onyx	-11.9996
▁motive	-11.9996
▁scope	-11.9996
▁bless	-11.9996
▁deuce	-11.9996
▁Schn	-11.9996
▁religious	-11.9996
seum	-11.9997
▁wand	-11.9997
▁skirt	-11.9997
▁Ross	-11.9997
▁Alfred	-11.9997
▁courage	-11.9997
▁beans	-11.9997
▁terrif	-11.9997
mMm	-11.9997
▁cheer	-11.9997
▁strangler	-11.9998
▁brighter	-11.9998
▁itches	-11.9998
▁daylight	-11.9998
▁Dawg	-11.9999
▁Khan	-11.9999
▁Deal	-11.9999
▁Home	-11.9999
▁YOU	-11.9999
▁punish	-11.9999
▁Ew	-11.9999
▁fable	-12.0001
erringer	-12.0001
▁magical	-12.0001
▁roman	-12.0001
▁valve	-12.0002
▁knowledge	-12.0002
▁gazing	-12.0002
▁reachin	-12.0003
morph	-12.0003
▁graduated	-12.0004
▁wacko	-12.0004
▁LO	-12.0004
▁cello	-12.0005
▁sitter	-12.0005
▁Swor	-12.0006
▁garg	-12.0006
▁goodnight	-12.0006
▁vouche	-12.0006
▁Eye	-12.0007
▁Pole	-12.0007
▁guilt	-12.0007
ddi	-12.0007
▁inconvenience	-12.0008
▁blessed	-12.0008
▁buryin	-12.0008
▁deserted	-12.0008
▁informed	-12.0008
▁amped	-12.0009
▁Sale	-12.0009
▁consen	-12.001
▁induct	-12.001
ncrease	-12.001
▁madness	-12.001
▁Grande	-12.001
mortem	-12.001
ival	-12.001
▁challenge	-12.0011
▁mamma	-12.0011
▁pervert	-12.0011
▁EP	-12.0011
Foot	-12.0011
▁pout	-12.0011
irelessly	-12.0011
▁duh	-12.0011
▁shifty	-12.0012
▁alternat	-12.0012
▁unfortunate	-12.0012
▁warped	-12.0012
▁fry	-12.0013
▁spank	-12.0013
▁blazin	-12.0013
▁taller	-12.0013
▁Slam	-12.0013
▁drained	-12.0014
▁Graze	-12.0014
Thanks	-12.0014
▁Michel	-12.0014
IV	-12.0014
▁Nat	-12.0016
▁Freaky	-12.0016
▁Bron	-12.0016
rella	-12.0016
▁cris	-12.0017
▁groin	-12.0017
▁Simpl	-12.0018
▁rapid	-12.0018
pital	-12.0018
▁curr	-12.002
▁Dilla	-12.002
▁unite	-12.002
▁tale	-12.002
▁handful	-12.0021
▁capped	-12.0021
▁Charg	-12.0022
▁embe	-12.0023
▁grader	-12.0023
▁convulsing	-12.0023
▁sweatin	-12.0024
▁envisioning	-12.0024
▁flirting	-12.0024
▁interesting	-12.0024
▁Temper	-12.0024
▁imitating	-12.0024
▁puck	-12.0024
▁Von	-12.0024
▁PM	-12.0025
▁ruger	-12.0025
▁Arch	-12.0026
▁grieving	-12.0026
▁dung	-12.0026
▁baton	-12.0026
▁arrow	-12.0027
▁Jada	-12.0027
▁fatal	-12.0028
airplane	-12.0028
bba	-12.0028
Beyonce	-12.0028
▁City	-12.0029
seater	-12.0029
▁scram	-12.0029
▁overdosed	-12.0029
▁Cour	-12.0029
▁bowling	-12.003
▁stimulat	-12.003
▁crashin	-12.0031
▁Janet	-12.0031
▁credit	-12.0031
▁ballers	-12.0032
▁squat	-12.0032
▁growth	-12.0033
▁clot	-12.0033
▁mature	-12.0033
▁Bry	-12.0033
▁ridin	-12.0034
▁obligat	-12.0034
▁Freak	-12.0035
▁Abra	-12.0035
gne	-12.0035
▁stranded	-12.0036
▁bluffin	-12.0036
▁Land	-12.0036
fart	-12.0037
▁Missy	-12.0037
▁debated	-12.0037
▁stre	-12.0037
▁risky	-12.0038
▁wounded	-12.0038
▁rented	-12.0038
▁helpless	-12.0038
▁vali	-12.0038
lexa	-12.0038
▁domin	-12.0039
▁review	-12.0039
▁remove	-12.004
▁Band	-12.0041
▁Glo	-12.0041
▁laughin	-12.0041
tape	-12.0042
▁Luc	-12.0043
▁chopper	-12.0044
▁tucked	-12.0045
▁judged	-12.0045
▁Mc	-12.0045
▁foldin	-12.0046
▁prey	-12.0046
▁vend	-12.0047
dwe	-12.0047
▁Rose	-12.0047
under	-12.0048
▁thicken	-12.0048
▁pita	-12.0049
▁trif	-12.0049
away	-12.0049
your	-12.005
▁bleedin	-12.005
▁elope	-12.005
▁weirder	-12.0051
▁summa	-12.0051
▁Deni	-12.0051
▁alley	-12.0052
▁Infe	-12.0052
▁craft	-12.0052
▁cancer	-12.0053
▁ledge	-12.0053
▁Five	-12.0053
cations	-12.0054
▁Assum	-12.0054
▁bung	-12.0055
▁bond	-12.0055
▁Indo	-12.0055
▁data	-12.0055
▁mayor	-12.0055
▁troph	-12.0056
THI	-12.0057
izzing	-12.0059
▁Date	-12.0059
▁picket	-12.0059
▁clapping	-12.006
▁cast	-12.006
2-	-12.0061
▁gaffl	-12.0061
▁outtie	-12.0061
▁molli	-12.0062
bulb	-12.0062
▁denying	-12.0062
▁sla	-12.0062
▁golfer	-12.0062
phr	-12.0062
▁peeled	-12.0063
eplenish	-12.0063
▁ME	-12.0063
▁rut	-12.0064
▁spelled	-12.0064
▁exhausted	-12.0064
▁sway	-12.0064
▁succeeded	-12.0064
▁accused	-12.0064
▁hill	-12.0064
▁baked	-12.0065
▁fairy	-12.0065
▁suffered	-12.0065
▁Senat	-12.0065
▁lev	-12.0066
wn	-12.0066
omat	-12.0067
▁mild	-12.0067
▁fad	-12.0067
▁stamped	-12.0067
▁Def	-12.0067
▁Suckin	-12.0068
▁Colli	-12.0069
good	-12.007
▁buildin	-12.007
▁retired	-12.007
▁veg	-12.0071
adonk	-12.0071
▁oldest	-12.0071
pus	-12.0072
guess	-12.0072
▁slurrin	-12.0073
▁Spin	-12.0075
if	-12.0075
▁asthma	-12.0075
▁drawin	-12.0075
▁Pris	-12.0076
▁mal	-12.0077
esley	-12.0077
▁heroin	-12.0077
pierc	-12.0078
▁wrapper	-12.0078
▁Fine	-12.0079
Ass	-12.008
▁invest	-12.008
▁initials	-12.0081
▁Bother	-12.0081
rofess	-12.0081
phones	-12.0082
▁Anyways	-12.0084
join	-12.0084
▁earrings	-12.0084
▁Nails	-12.0084
▁grapes	-12.0084
▁cowboys	-12.0084
▁characters	-12.0084
▁nachos	-12.0084
hildren	-12.0084
▁lyricists	-12.0084
gation	-12.0084
▁Curs	-12.0085
▁Coles	-12.0085
▁competitors	-12.0085
▁reversed	-12.0086
▁Drum	-12.0089
dex	-12.0089
bon	-12.009
▁gravit	-12.009
▁ignit	-12.0091
▁scre	-12.0091
▁cookies	-12.0091
▁masses	-12.0091
▁genes	-12.0091
▁dish	-12.0092
▁snuff	-12.0094
▁Letters	-12.0094
▁Dreamin	-12.0094
15	-12.0095
▁colos	-12.0095
aud	-12.0095
▁worshiped	-12.0095
▁buns	-12.0095
▁Ricky	-12.0095
▁Mace	-12.0097
dra	-12.0097
lyps	-12.0098
▁pil	-12.01
▁raging	-12.0101
▁tray	-12.0102
▁deceiv	-12.0103
▁sling	-12.0104
▁fitted	-12.0104
▁Feelin	-12.0104
▁dull	-12.0104
▁honesty	-12.0104
▁Therefore	-12.0105
▁beddy	-12.0105
▁declin	-12.0105
▁justice	-12.0105
descend	-12.0105
▁countin	-12.0105
▁readin	-12.0106
▁related	-12.0108
laborate	-12.0109
yah	-12.0109
▁pine	-12.011
▁tooken	-12.0111
▁Eh	-12.0115
They	-12.0115
ych	-12.0115
▁intro	-12.0115
)(	-12.0116
Bis	-12.0116
five	-12.0117
▁Takin	-12.0117
▁actor	-12.0119
sberg	-12.0121
▁fir	-12.0121
nives	-12.0124
tune	-12.0125
▁Work	-12.0126
▁design	-12.0126
▁schm	-12.0127
▁general	-12.0128
▁Lyrical	-12.0128
▁signin	-12.0128
▁dissin	-12.0129
▁Rocky	-12.0131
▁buyin	-12.0131
▁watches	-12.0133
▁Lev	-12.0133
▁Rod	-12.0134
▁rumblin	-12.0136
▁training	-12.0136
▁sadly	-12.0138
▁pleading	-12.014
▁steering	-12.014
▁entertaining	-12.014
▁arrived	-12.0141
dop	-12.0142
▁slowin	-12.0142
▁passin	-12.0142
▁breathin	-12.0144
▁Target	-12.0144
▁nec	-12.0145
▁lower	-12.0146
▁kissin	-12.0147
▁normally	-12.0147
cker	-12.0148
▁Wand	-12.0149
▁sag	-12.015
▁returned	-12.0151
▁cove	-12.0151
▁burnin	-12.0152
▁flam	-12.0152
▁elev	-12.0152
ensor	-12.0153
▁Waitin	-12.0153
▁barf	-12.0154
▁Cree	-12.0155
akis	-12.0156
▁travell	-12.0157
▁measur	-12.0157
▁leader	-12.0158
▁min	-12.016
▁inspect	-12.0161
▁glasses	-12.0163
ssenger	-12.0163
▁faded	-12.0165
storm	-12.0166
▁drinkin	-12.0166
ech	-12.0167
▁paintin	-12.0168
jamas	-12.0172
▁cure	-12.0175
▁tortured	-12.0175
lades	-12.0176
▁Ph	-12.0177
ecision	-12.0177
▁Kur	-12.0177
▁dryer	-12.0179
▁guarded	-12.0179
▁Stomping	-12.0179
▁toddler	-12.0179
▁drowned	-12.018
▁Su	-12.018
▁pouring	-12.0182
▁toaster	-12.0182
▁outcome	-12.0182
▁clowned	-12.0184
▁hanger	-12.0186
▁Poss	-12.0186
▁wise	-12.0187
▁Runy	-12.0187
▁manne	-12.0187
▁bathe	-12.0189
burp	-12.0193
Dot	-12.0193
▁manic	-12.0194
▁aeros	-12.0198
▁hog	-12.0198
▁whil	-12.0199
▁doze	-12.0199
▁cope	-12.02
▁catchin	-12.0201
▁weep	-12.0201
▁Mrs	-12.0207
▁anim	-12.021
▁brat	-12.021
▁film	-12.0219
tap	-12.022
▁bustin	-12.0221
▁upward	-12.0221
▁kab	-12.0221
▁update	-12.0221
▁clearly	-12.0223
leg	-12.0223
▁concentrat	-12.0223
▁cult	-12.0224
coming	-12.0224
▁Dog	-12.0226
▁birdie	-12.0228
▁Robin	-12.0229
▁rainin	-12.023
▁Cock	-12.0231
▁quickly	-12.0232
▁pressed	-12.0238
might	-12.0242
▁payin	-12.0244
▁Beer	-12.0245
▁Motherfuck	-12.0245
▁wishin	-12.0247
ety	-12.0247
qui	-12.0251
▁Rum	-12.0252
tight	-12.0254
▁ima	-12.0254
▁Pl	-12.0254
▁island	-12.0258
▁Beg	-12.0259
▁hetero	-12.026
....[	-12.0262
▁Jaws	-12.0263
▁follower	-12.0264
▁lifted	-12.0265
▁shooter	-12.0265
▁San	-12.0265
▁blunted	-12.0265
▁muthafuck	-12.0266
▁charm	-12.0266
▁blister	-12.0266
▁possessed	-12.0266
▁flex	-12.0268
asted	-12.027
▁swatte	-12.0271
reature	-12.0271
▁AD	-12.0272
dget	-12.0272
▁Drink	-12.0272
rozen	-12.0279
▁pointy	-12.0281
rraign	-12.0283
▁villa	-12.0284
▁Rea	-12.0284
hutt	-12.0285
mmortal	-12.0287
▁Bells	-12.0287
oval	-12.0288
gra	-12.0289
▁brats	-12.029
▁units	-12.029
ener	-12.0293
headed	-12.0293
▁crayons	-12.0293
▁adults	-12.0294
▁accents	-12.0294
▁comics	-12.0294
▁jewels	-12.0294
51	-12.0294
▁rumors	-12.0294
▁tickets	-12.0295
▁bubbles	-12.0295
▁pledg	-12.0296
▁mates	-12.0297
▁dumm	-12.0299
▁swell	-12.0301
▁Fall	-12.0304
▁dah	-12.0306
▁cryin	-12.0307
▁bab	-12.0307
▁bisc	-12.031
▁buri	-12.031
alentine	-12.0311
Migo	-12.0312
tors	-12.0316
▁sire	-12.0317
rotter	-12.032
ating	-12.032
▁che	-12.0323
onist	-12.0325
esert	-12.0326
rena	-12.0327
evilles	-12.0327
▁ske	-12.0328
reacher	-12.0332
amage	-12.0332
▁dolls	-12.0336
ugar	-12.0338
▁ser	-12.0339
herapy	-12.034
libr	-12.0343
alo	-12.0348
▁marshm	-12.0349
riting	-12.035
▁effin	-12.0353
▁yelled	-12.0355
ished	-12.0363
▁blinded	-12.0365
Me	-12.0367
athetic	-12.0369
pric	-12.0375
echoes	-12.0378
Ta	-12.0379
▁stored	-12.038
▁rockin	-12.0381
ano	-12.0383
▁offic	-12.0391
▁purpl	-12.0391
▁peer	-12.0393
▁fantasiz	-12.0393
▁often	-12.0395
▁surely	-12.0397
mama	-12.0399
liers	-12.04
fford	-12.04
ygo	-12.04
▁Cop	-12.0402
tock	-12.0403
▁growin	-12.0404
nant	-12.0406
liar	-12.041
Wa	-12.0414
▁prayed	-12.0415
▁Ob	-12.0415
▁hitter	-12.0416
zy	-12.0417
▁pickin	-12.042
▁coloring	-12.0422
tectors	-12.0425
Pew	-12.0433
umm	-12.0439
▁sedat	-12.0441
▁chim	-12.0445
▁gall	-12.045
There	-12.0451
icebox	-12.0451
girls	-12.0453
▁physical	-12.0455
worshippin	-12.0456
stered	-12.0457
▁flashing	-12.0457
▁Myers	-12.0461
▁sacrifices	-12.0463
ohn	-12.0465
▁Thirt	-12.0465
iley	-12.0465
▁outage	-12.0467
▁te	-12.0467
dded	-12.047
stop	-12.047
ican	-12.0478
ailed	-12.0479
▁Ven	-12.0481
▁asset	-12.0481
covery	-12.0482
▁Ches	-12.0484
toxic	-12.0486
▁sco	-12.0486
▁raun	-12.0491
-9	-12.0492
ets	-12.0494
▁loot	-12.0497
macho	-12.0499
▁yada	-12.05
▁Severin	-12.0501
▁Myster	-12.0501
▁fulla	-12.0502
▁makeup	-12.0505
▁addy	-12.0505
threaten	-12.0505
▁fooled	-12.0506
▁tasted	-12.0507
oop	-12.0509
▁politics	-12.0514
▁missiles	-12.0514
▁whirls	-12.0514
▁amounts	-12.0514
▁erupts	-12.0514
▁Grammys	-12.0514
▁ankles	-12.0514
▁gimmicks	-12.0514
▁waffles	-12.0514
▁quarters	-12.0514
▁Meets	-12.0515
▁projects	-12.0515
▁lightenin	-12.052
▁Dan	-12.0521
eretta	-12.0524
can	-12.0525
mical	-12.0526
▁dues	-12.0526
tex	-12.0527
▁aunt	-12.0527
brace	-12.0528
▁fellas	-12.0529
perman	-12.0529
imilar	-12.053
▁ballin	-12.0537
ucif	-12.0541
▁slamm	-12.0546
ractors	-12.0552
▁Mars	-12.0552
▁cruis	-12.0558
▁arche	-12.0559
risk	-12.0563
antic	-12.0566
mping	-12.0567
▁Bell	-12.0569
▁fla	-12.0579
▁finesse	-12.0586
burgers	-12.0591
▁Ren	-12.0593
▁deader	-12.0593
ily	-12.0595
▁doubted	-12.0601
▁pap	-12.0606
icle	-12.0607
▁tend	-12.0619
Tonka	-12.0623
then	-12.0633
▁busta	-12.0634
▁Kn	-12.0636
▁repli	-12.0649
▁dusted	-12.0652
▁blackin	-12.0657
▁Pit	-12.0658
▁Ak	-12.0665
arely	-12.0665
▁peels	-12.0667
Stat	-12.0689
ags	-12.0698
beats	-12.0702
kneel	-12.0703
mper	-12.0708
▁hex	-12.0712
otin	-12.0717
▁hairy	-12.0719
ured	-12.0722
Awww	-12.0722
▁limbs	-12.0732
▁Jaw	-12.0733
▁roots	-12.0742
▁Games	-12.0742
▁diapers	-12.0743
▁lawsuits	-12.0743
▁neighborhoods	-12.0743
▁statements	-12.0743
▁issues	-12.0743
▁stamps	-12.0746
▁overse	-12.0751
vest	-12.0753
▁verb	-12.0753
▁Vis	-12.0754
▁Copp	-12.0758
▁drips	-12.0761
▁exten	-12.0761
▁ke	-12.0762
onder	-12.0762
▁starter	-12.0764
▁volt	-12.0766
▁Bur	-12.0775
▁Artist	-12.0776
▁grim	-12.0778
▁Sche	-12.0779
ples	-12.0779
Car	-12.078
▁highly	-12.0781
▁yearn	-12.0782
▁Heart	-12.0789
nda	-12.0796
ippie	-12.0801
aterial	-12.0803
ieve	-12.0806
▁turnin	-12.0808
zzle	-12.0809
▁soci	-12.081
hoes	-12.0812
▁partial	-12.0816
▁tah	-12.0829
▁ringing	-12.0833
lking	-12.0834
▁(*	-12.0846
this	-12.0854
▁gasp	-12.0862
▁Huh	-12.0864
atives	-12.0865
ntage	-12.0866
▁washer	-12.0875
used	-12.0876
▁oral	-12.0888
▁slugg	-12.0888
assured	-12.0891
▁braver	-12.0899
▁budget	-12.0909
▁Oy	-12.0916
▁digg	-12.0917
assemble	-12.0927
pluggin	-12.0934
▁fam	-12.0939
▁z	-12.0941
rench	-12.0944
iling	-12.0949
▁pat	-12.0951
▁pukin	-12.0956
etic	-12.0959
sun	-12.0961
▁mids	-12.097
Bla	-12.0974
nish	-12.0974
▁bac	-12.0975
▁odds	-12.0976
▁releases	-12.0978
▁groups	-12.0978
blaze	-12.0979
▁unhol	-12.0983
▁debat	-12.0985
▁terri	-12.0992
▁bagg	-12.1011
▁scratched	-12.1029
▁guessin	-12.103
adies	-12.1031
▁peeing	-12.1033
stardom	-12.1035
ackets	-12.1046
nym	-12.1047
amids	-12.1056
▁Gas	-12.1058
▁'0	-12.1071
▁Ox	-12.1094
VD	-12.1097
gies	-12.111
▁linger	-12.1116
▁boxer	-12.1128
▁Ber	-12.113
cue	-12.1136
▁dea	-12.1142
mell	-12.1146
▁ent	-12.1149
▁hou	-12.1155
▁blend	-12.1156
burb	-12.1156
eon	-12.1159
▁filling	-12.1162
unset	-12.1168
▁Clown	-12.1169
▁millions	-12.117
▁Save	-12.1181
▁Sto	-12.1183
▁balled	-12.119
▁wishing	-12.1192
▁doo	-12.1194
▁Pu	-12.1195
Loud	-12.1197
▁eggs	-12.1202
▁merit	-12.1205
▁egos	-12.1217
▁stunts	-12.1218
▁systems	-12.122
▁Chill	-12.122
▁bree	-12.1223
iza	-12.123
▁shitting	-12.1239
loti	-12.1239
wept	-12.124
▁Hom	-12.1258
mom	-12.1265
oon	-12.1268
tortion	-12.1283
▁Buck	-12.1285
fashioned	-12.1304
Crooked	-12.1304
wooh	-12.1307
crib	-12.131
▁rubb	-12.1312
▁gritt	-12.1328
bags	-12.1335
▁Ele	-12.1336
yes	-12.134
gedy	-12.1345
▁badly	-12.1351
▁Cy	-12.1364
▁committ	-12.1367
▁instrumental	-12.1372
▁hearin	-12.1375
▁Sw	-12.1377
deals	-12.1378
still	-12.139
▁Tit	-12.1394
▁Tim	-12.14
Has	-12.1413
▁Denn	-12.1414
▁kicks	-12.1422
arm	-12.1435
▁rats	-12.1439
oldier	-12.1453
▁gri	-12.1465
▁aspir	-12.1466
▁ghosts	-12.147
▁disguises	-12.147
▁chart	-12.147
▁swords	-12.1472
▁creat	-12.1475
▁operati	-12.148
rry	-12.1522
ella	-12.1529
uction	-12.1529
▁fully	-12.153
▁Ty	-12.1537
▁pure	-12.1543
▁scoot	-12.1548
▁hol	-12.1549
oma	-12.1551
ticles	-12.1579
cade	-12.1584
▁pins	-12.1586
▁keepin	-12.1592
▁lighters	-12.1594
▁chic	-12.1625
dome	-12.1676
▁Strapp	-12.1677
▁lin	-12.168
lev	-12.168
tab	-12.1685
▁stains	-12.1688
las	-12.1694
gest	-12.1704
insert	-12.1715
▁cla	-12.1718
▁accidents	-12.1727
▁relationships	-12.1727
▁Fore	-12.1753
ire	-12.1784
▁poo	-12.1788
eggar	-12.1793
tel	-12.1793
rick	-12.1796
▁Iron	-12.1799
ophobic	-12.1807
clear	-12.1812
▁pickle	-12.1822
Grr	-12.1828
▁blu	-12.1851
ivi	-12.1851
▁listener	-12.187
IS	-12.1877
arate	-12.1879
nal	-12.1886
▁Dy	-12.1901
peacefully	-12.1914
oyal	-12.1919
▁Des	-12.193
▁citizens	-12.1941
▁tails	-12.1945
▁indo	-12.1951
▁bands	-12.1964
▁Tar	-12.1975
hhhhhh	-12.1977
▁cons	-12.1978
▁jams	-12.198
▁mur	-12.1982
▁nor	-12.1995
▁Sco	-12.2
LAA	-12.2006
ergen	-12.2031
hopped	-12.2034
ough	-12.2046
icture	-12.2057
▁Tha	-12.2081
nell	-12.2085
tract	-12.2091
▁Polo	-12.2097
doe	-12.2099
▁ahh	-12.21
Fish	-12.2106
Hoo	-12.2116
▁hesita	-12.2122
▁cavi	-12.2174
▁mill	-12.2185
▁suits	-12.2196
▁booge	-12.2197
▁lace	-12.2203
gas	-12.2204
▁Rou	-12.2213
▁commo	-12.2227
▁Kidd	-12.2234
▁Fill	-12.2242
▁reta	-12.2249
gers	-12.2261
▁repeats	-12.2262
▁laps	-12.2278
▁wipin	-12.2278
.[	-12.2287
enzo	-12.2288
willingly	-12.2291
▁Nin	-12.2306
Ouch	-12.2306
▁Ser	-12.2317
bys	-12.2331
eez	-12.2342
gics	-12.2344
mind	-12.2346
▁pads	-12.2353
sters	-12.236
▁locks	-12.236
▁nic	-12.2384
screw	-12.2389
▁Chopp	-12.2405
bo	-12.241
eezing	-12.2443
woof	-12.2461
hausen	-12.2466
▁Mu	-12.2492
ingers	-12.2494
▁ahhh	-12.2502
▁bows	-12.251
comfortable	-12.2523
▁Sucks	-12.2527
▁bricks	-12.2546
▁Doo	-12.2555
▁pu	-12.2557
▁swings	-12.2568
yser	-12.2571
▁satan	-12.2575
▁Cat	-12.2576
▁Sy	-12.2588
▁dispens	-12.26
oledo	-12.2617
▁Runnin	-12.2625
▁Dang	-12.2654
lia	-12.2675
▁Sk	-12.2682
▁entr	-12.2692
ists	-12.271
rance	-12.2724
bet	-12.2727
ics	-12.2733
nge	-12.2765
▁Fagg	-12.2789
▁Sta	-12.2811
driver	-12.2828
▁biter	-12.2841
▁Det	-12.2862
reparation	-12.2867
▁lik	-12.2867
ob	-12.287
iety	-12.2885
▁ideas	-12.2907
kes	-12.2908
ls	-12.2925
stic	-12.2958
▁Nei	-12.2963
som	-12.2984
wall	-12.2989
▁interr	-12.2992
▁fakin	-12.3003
▁inspir	-12.3004
▁tower	-12.3004
▁goats	-12.3008
▁1-	-12.3017
orious	-12.3017
asket	-12.3017
▁org	-12.3029
rest	-12.3042
▁Pul	-12.3043
▁sexual	-12.3078
amen	-12.3081
▁soak	-12.3099
▁Whippin	-12.3104
rais	-12.3115
▁Johns	-12.3123
▁CDs	-12.3133
▁oranges	-12.3137
▁Cam	-12.3159
▁Sur	-12.3218
▁Cann	-12.3295
arrow	-12.3312
▁pri	-12.3329
▁Dar	-12.3338
▁gaz	-12.3343
▁pol	-12.3347
motion	-12.3359
▁nines	-12.3363
[20	-12.3378
▁Bean	-12.3392
ung	-12.3396
hizz	-12.3419
▁recap	-12.3437
▁wantin	-12.3446
▁blinds	-12.3459
▁Tippe	-12.3482
ervice	-12.3502
bility	-12.351
table	-12.3549
Billy	-12.3557
bu	-12.3571
prehend	-12.3589
lated	-12.3604
gle	-12.3614
alia	-12.3615
▁Rippe	-12.362
▁bias	-12.3632
ecca	-12.3637
thless	-12.3661
inson	-12.367
vinn	-12.3686
▁introduc	-12.3725
▁bites	-12.3732
▁injure	-12.3736
▁critique	-12.3758
evol	-12.3762
▁pricks	-12.3764
▁News	-12.3766
onka	-12.3768
ngous	-12.3771
ference	-12.3795
stage	-12.3796
▁spo	-12.3836
▁Bou	-12.3874
olent	-12.3895
▁Inn	-12.3898
▁critiqu	-12.3899
Illit	-12.3923
▁injur	-12.3929
vi	-12.3936
▁pinn	-12.3943
acancy	-12.3987
ain	-12.402
ditching	-12.402
▁preci	-12.402
dais	-12.4027
▁bitchin	-12.4033
10	-12.4054
▁Bla	-12.4057
▁barb	-12.408
▁barbe	-12.4102
▁Mur	-12.4113
▁Pad	-12.4137
▁Hen	-12.4192
SSS	-12.4258
bby	-12.4268
rapped	-12.4283
▁jo	-12.4296
anie	-12.4301
▁Low	-12.4306
anger	-12.4323
▁biase	-12.4337
rolly	-12.4351
▁Osbo	-12.4395
stone	-12.4414
▁compar	-12.4429
Owww	-12.4448
sent	-12.447
aries	-12.4473
formati	-12.4474
met	-12.4474
iving	-12.4574
▁chee	-12.458
oda	-12.46
▁Animal	-12.4628
▁curio	-12.4664
▁mara	-12.467
raise	-12.4682
uzi	-12.4702
brrr	-12.4727
wers	-12.476
rid	-12.4818
RE	-12.4828
rrrr	-12.4833
ua	-12.486
hale	-12.4901
▁subp	-12.4909
▁Separat	-12.494
▁za	-12.4943
mature	-12.4991
▁Dynami	-12.5015
▁Rue	-12.5021
▁Cook	-12.5026
▁emotionall	-12.5038
....	-12.5039
▁Ci	-12.5113
ummer	-12.5114
ffle	-12.5119
ents	-12.5162
▁Fann	-12.5169
osexual	-12.5194
▁apologizin	-12.5212
▁yum	-12.5216
▁dispense	-12.5218
▁twi	-12.5221
buttal	-12.5235
▁homosex	-12.5265
▁Frog	-12.527
▁Loo	-12.5322
ERS	-12.5352
hardly	-12.5374
sodom	-12.5376
inna	-12.5429
▁Hun	-12.5458
▁distan	-12.5465
▁panel	-12.5468
Touch	-12.5484
ugh	-12.55
▁bruisin	-12.55
▁dr	-12.5505
niper	-12.5531
istance	-12.5583
▁prepar	-12.5587
urp	-12.5588
ukin	-12.5598
itant	-12.5599
▁referen	-12.5643
cie	-12.5658
▁Remi	-12.5674
roduce	-12.5688
aved	-12.5693
▁lac	-12.5702
▁flop	-12.5727
potlight	-12.5739
▁prote	-12.5745
▁homo	-12.5821
▁proba	-12.5829
▁comfortabl	-12.5874
▁Christo	-12.5905
▁satani	-12.5928
SI	-12.5929
pper	-12.5947
▁Gee	-12.5998
▁wakin	-12.6001
bber	-12.6025
AAA	-12.6025
rop	-12.6033
ackin	-12.6058
alize	-12.6064
▁acknowledg	-12.6086
Aid	-12.6095
ought	-12.6102
rgency	-12.6129
▁sacrific	-12.6176
stitute	-12.6239
phobic	-12.6329
▁SO	-12.6358
ridge	-12.6373
▁Hov	-12.6448
llions	-12.6451
▁appe	-12.6452
rth	-12.6457
ional	-12.646
poot	-12.6474
▁Skin	-12.6477
state	-12.6525
▁cro	-12.6529
nsecure	-12.6579
des	-12.6581
ppin	-12.6606
▁dece	-12.665
ucking	-12.6671
▁tense	-12.6698
match	-12.6721
acking	-12.6725
▁siz	-12.674
cooter	-12.6741
umping	-12.6763
▁fren	-12.6784
verage	-12.6789
mpire	-12.6802
▁Sittin	-12.6812
outro	-12.6853
▁Ash	-12.6853
▁Sim	-12.6881
▁inhal	-12.6888
MO	-12.6908
▁severe	-12.6949
hat	-12.6955
Bling	-12.6968
▁smo	-12.7001
fum	-12.7035
▁Lu	-12.7039
▁bran	-12.704
▁opera	-12.7078
▁pur	-12.7089
ilted	-12.7093
ali	-12.7112
▁Simm	-12.7121
izz	-12.7138
▁Crook	-12.7149
▁fashion	-12.7151
▁despera	-12.7154
gency	-12.7154
mateurs	-12.7197
▁magn	-12.7198
ortion	-12.7224
20	-12.7226
▁Trie	-12.7242
▁fruiti	-12.7244
▁doublin	-12.725
gan	-12.7304
ara	-12.7315
kipped	-12.7332
▁battlin	-12.7346
merits	-12.7349
lize	-12.7358
▁Lou	-12.7371
Clowns	-12.739
▁Spot	-12.7394
ica	-12.7428
▁rud	-12.7433
ban	-12.7449
▁shin	-12.7478
▁bas	-12.7518
ute	-12.7536
lingers	-12.7561
cast	-12.7592
Tr	-12.7594
knuckles	-12.7597
▁debatin	-12.7629
▁plannin	-12.7629
▁stylin	-12.763
▁Af	-12.7642
▁terr	-12.7649
iated	-12.7697
trance	-12.7708
▁activ	-12.7713
opath	-12.7736
cycle	-12.7744
illion	-12.7751
itory	-12.7756
owl	-12.777
lender	-12.7801
▁hors	-12.7815
▁Pol	-12.7829
ggy	-12.7847
▁chargin	-12.7856
rials	-12.7875
▁Mor	-12.7879
mmer	-12.789
▁plugg	-12.7892
semble	-12.7897
▁tr	-12.7904
▁wizz	-12.7926
az	-12.7939
▁dro	-12.7943
▁Ru	-12.7953
ickle	-12.7955
ille	-12.7955
▁Stud	-12.7961
allow	-12.7968
jo	-12.7972
rastic	-12.7973
otten	-12.7979
▁CO	-12.7983
rp	-12.7985
▁practicin	-12.7985
▁bodi	-12.7991
fusion	-12.7991
ggler	-12.8013
looked	-12.8024
▁Spoke	-12.8071
▁Dumb	-12.8096
verbs	-12.8098
rushed	-12.8138
illy	-12.8159
cted	-12.8162
ency	-12.8164
rappin	-12.8189
▁log	-12.8195
ployed	-12.8209
nnell	-12.8216
retched	-12.8218
▁GO	-12.8246
atic	-12.8247
▁electro	-12.8258
repre	-12.8272
▁spr	-12.8283
fades	-12.8288
▁Vo	-12.8292
www	-12.8299
▁Total	-12.8303
unda	-12.8315
▁shovin	-12.8334
eroxi	-12.8374
hoo	-12.8381
▁shifte	-12.8391
other	-12.84
▁Fac	-12.8403
Ahhhh	-12.841
ancy	-12.8419
▁raisin	-12.8437
inally	-12.845
▁smilin	-12.8453
sigh	-12.8457
OL	-12.8461
▁superstar	-12.8467
▁author	-12.8469
▁armo	-12.847
shave	-12.8471
EA	-12.8485
vic	-12.8506
antern	-12.8526
▁bun	-12.8534
▁Electr	-12.855
opy	-12.8565
▁urgen	-12.8581
actions	-12.8583
Ni	-12.8587
ously	-12.8593
▁durin	-12.8594
tractor	-12.8608
oolish	-12.8618
▁cruise	-12.862
breaker	-12.8628
LD	-12.8629
To	-12.8637
imate	-12.8649
▁3:	-12.8651
arach	-12.8669
pr	-12.868
Cle	-12.8683
▁Simil	-12.8686
▁destruct	-12.8691
Facts	-12.8694
attle	-12.8699
▁sippin	-12.8714
gnate	-12.8719
vy	-12.8732
umpin	-12.8751
▁sli	-12.8752
placent	-12.8754
▁juic	-12.8766
enches	-12.8782
print	-12.8809
ode	-12.8822
mmatur	-12.8823
stakes	-12.8834
litz	-12.8837
▁Ske	-12.8842
ovin	-12.8871
▁spas	-12.8874
▁ru	-12.8877
ub	-12.8889
erance	-12.8893
▁detect	-12.8899
cture	-12.8902
▁Lac	-12.8904
mmin	-12.8905
▁Stackin	-12.8909
qu	-12.8913
literat	-12.8919
ochi	-12.8924
donna	-12.8938
ense	-12.8964
oc	-12.8995
edia	-12.8997
ysterious	-12.9
ega	-12.9004
▁choppin	-12.9021
▁purp	-12.9023
ressed	-12.9041
▁Gang	-12.9073
▁bur	-12.9076
Writ	-12.9079
live	-12.9087
▁schn	-12.909
ium	-12.9094
ychological	-12.9108
etta	-12.9115
▁Brit	-12.9125
cept	-12.9139
hooo	-12.9145
▁Whip	-12.9153
uted	-12.9153
▁THE	-12.9155
▁comfort	-12.9158
tched	-12.916
▁splashe	-12.9164
elfishly	-12.9165
▁baggin	-12.9166
reakin	-12.9173
Fans	-12.9177
adi	-12.9178
▁add	-12.9181
otatoes	-12.9186
▁Tra	-12.9186
▁viol	-12.9193
▁becomin	-12.9198
ggie	-12.9206
▁Tonk	-12.921
▁ratio	-12.9225
▁fantasizin	-12.9225
anc	-12.9226
▁Drinkin	-12.9228
▁flexin	-12.923
▁blisterin	-12.9233
▁muthafuckin	-12.9234
stayed	-12.9243
ustin	-12.9243
coo	-12.9247
mortal	-12.9252
▁Motherfuckin	-12.9257
shall	-12.9261
▁ste	-12.9268
hysically	-12.9275
power	-12.9276
handin	-12.9284
pire	-12.929
leviate	-12.929
▁Rob	-12.9326
ception	-12.933
▁etc	-12.9331
▁colo	-12.9333
oncentrate	-12.9333
Pub	-12.9337
uite	-12.9343
pla	-12.9349
Lun	-12.9353
▁pane	-12.9367
webs	-12.937
upon	-12.9384
▁pimpin	-12.9398
▁concer	-12.9402
▁Dism	-12.9412
iber	-12.942
▁hock	-12.9429
▁Ac	-12.9453
▁placin	-12.9453
ju	-12.9456
ajama	-12.9459
Feeling	-12.946
gettin	-12.9464
▁Apolog	-12.9467
▁Disc	-12.9475
hies	-12.9478
rted	-12.948
assage	-12.9482
▁peg	-12.9483
▁Layin	-12.9484
▁Cama	-12.9484
roc	-12.9487
▁tran	-12.9494
panics	-12.9495
▁Xan	-12.9495
▁idio	-12.9496
▁Hail	-12.9498
▁huggin	-12.9502
nist	-12.951
easure	-12.951
gling	-12.9512
▁Slic	-12.9521
ightening	-12.9527
plants	-12.9527
ou	-12.9531
▁Rubbin	-12.9532
▁Wiz	-12.9542
jers	-12.9544
▁physic	-12.9546
▁Na	-12.9548
ppity	-12.9549
rgu	-12.9553
ippits	-12.9554
▁Lyric	-12.956
▁Flippin	-12.9581
▁spra	-12.9583
ator	-12.9586
▁worshipp	-12.9595
muggl	-12.9595
Cleanin	-12.9596
guin	-12.9597
▁huffin	-12.9598
ody	-12.9598
▁steamin	-12.9601
umped	-12.9602
Thank	-12.9603
Times	-12.961
Su	-12.9615
ollaborat	-12.9618
▁Checkin	-12.9621
▁jog	-12.9622
▁scra	-12.9622
▁noddin	-12.9622
▁toppl	-12.9623
▁gener	-12.9625
xi	-12.9628
▁Rollin	-12.9629
plattered	-12.9629
onions	-12.963
bri	-12.9631
▁Watchin	-12.9632
▁clo	-12.9633
Bump	-12.9636
▁escalat	-12.9636
▁Cl	-12.9649
idable	-12.9656
▁Deci	-12.9656
west	-12.9662
▁revi	-12.9664
Bob	-12.9666
▁wo	-12.9666
▁character	-12.9667
▁competitor	-12.9667
cular	-12.9667
▁Child	-12.9667
▁nacho	-12.9668
▁slur	-12.9669
▁cowboy	-12.967
Ka	-12.9671
▁grape	-12.9673
races	-12.9673
ible	-12.9674
▁lyricist	-12.9676
▁earring	-12.9677
bviously	-12.9677
▁Nail	-12.968
Put	-12.9683
▁Meth	-12.9688
▁Anyway	-12.9694
▁muscle	-12.9694
▁journalist	-12.9694
▁nostril	-12.9694
▁explosive	-12.9694
▁dread	-12.9695
▁Brig	-12.9697
▁stair	-12.9697
▁Saint	-12.9698
▁refere	-12.9699
▁cookie	-12.97
isk	-12.97
▁mach	-12.9706
hreaten	-12.9706
▁length	-12.9707
▁opponent	-12.9707
▁glock	-12.9713
ggin	-12.9716
ooky	-12.9716
ask	-12.9717
ev	-12.9719
▁jean	-12.9721
▁neighbor	-12.9722
ecto	-12.9722
▁scissor	-12.9723
▁squa	-12.9723
▁sentiment	-12.9726
▁Reeve	-12.9727
hugg	-12.9728
▁boob	-12.9735
▁fra	-12.9737
igan	-12.9739
▁initial	-12.974
uest	-12.9742
Deep	-12.9743
secu	-12.9744
tric	-12.9745
▁intention	-12.9746
Bea	-12.9747
▁Wi	-12.9747
void	-12.975
van	-12.9751
ccused	-12.9751
▁cau	-12.9753
ula	-12.9754
wha	-12.9754
rrived	-12.9754
egi	-12.9757
rration	-12.9758
Gangst	-12.9759
pies	-12.9759
▁rose	-12.976
arder	-12.9761
plane	-12.9763
▁Hangin	-12.9763
▁leakin	-12.9763
berg	-12.9764
ctly	-12.977
bone	-12.9771
erman	-12.9771
▁stun	-12.9773
bums	-12.9775
▁nook	-12.9776
TR	-12.9781
latant	-12.9783
ppeal	-12.9785
riveby	-12.9787
unge	-12.9788
lashes	-12.9789
disp	-12.979
▁obli	-12.9791
▁Dru	-12.9793
▁ki	-12.9793
arried	-12.9795
▁15	-12.9797
▁credi	-12.9798
nswer	-12.9798
▁gene	-12.9798
tantly	-12.9799
suckin	-12.9799
itude	-12.98
occur	-12.98
imulator	-12.9801
poo	-12.9801
minist	-12.9802
lready	-12.9802
▁stabbin	-12.9804
au	-12.9805
▁soakin	-12.9806
hear	-12.9806
itive	-12.9809
▁blur	-12.9811
▁rav	-12.9812
ickin	-12.9813
chau	-12.9814
▁temp	-12.9817
gree	-12.9817
▁grea	-12.9821
opp	-12.9822
▁Instant	-12.9822
▁slidin	-12.9822
ophies	-12.9822
actics	-12.9825
hahaha	-12.9827
adie	-12.9829
▁pumpin	-12.9833
hka	-12.9834
cosm	-12.9835
▁whoooo	-12.9836
HHH	-12.984
star	-12.984
▁glove	-12.9841
AHHHHHHH	-12.9841
ardly	-12.9841
▁racis	-12.9842
Bi	-12.9842
nfortunately	-12.9846
oza	-12.9847
FA	-12.9847
pectat	-12.9847
volt	-12.9848
▁challeng	-12.9849
learn	-12.9849
merge	-12.985
hehehe	-12.985
▁refu	-12.9852
▁masse	-12.9852
▁Miche	-12.9852
▁Jane	-12.9853
▁snor	-12.9854
grav	-12.9854
Inter	-12.9856
00-	-12.9856
disc	-12.9856
rroga	-12.9857
Jo	-12.9857
placin	-12.9859
ccident	-12.9859
jackin	-12.986
ckin	-12.9862
superstar	-12.9863
Chee	-12.9863
ubbie	-12.9864
ddicted	-12.9867
ssault	-12.9868
▁wallowin	-12.9868
▁sty	-12.9869
gnoring	-12.9869
▁ruinin	-12.9869
▁conj	-12.987
spiration	-12.9871
hou	-12.9871
convenience	-12.9872
sign	-12.9872
Gee	-12.9873
span	-12.9873
▁Flip	-12.9873
▁shoo	-12.9873
▁Cole	-12.9876
▁conce	-12.9876
nymore	-12.9878
unit	-12.9879
lora	-12.988
appear	-12.988
bul	-12.988
ogey	-12.9881
▁lou	-12.9881
▁clap	-12.9882
onditioning	-12.9882
list	-12.9882
conscious	-12.9882
igno	-12.9882
▁exc	-12.9882
▁phys	-12.9884
presents	-12.9885
burg	-12.9885
▁trop	-12.9885
doubted	-12.9886
Freaky	-12.9886
Alfred	-12.9886
Compton	-12.9886
Dawg	-12.9886
Definitely	-12.9886
Goddamn	-12.9886
leader	-12.9886
religious	-12.9886
Attack	-12.9886
Eazy	-12.9886
Infinite	-12.9886
Onyx	-12.9886
Rabbit	-12.9886
attorney	-12.9886
rabbits	-12.9886
appointment	-12.9886
skirt	-12.9886
Outsidaz	-12.9886
establish	-12.9886
reversed	-12.9886
review	-12.9886
zipper	-12.9886
motive	-12.9886
deuce	-12.9887
scope	-12.9887
▁chocolat	-12.9887
▁sampl	-12.9887
courage	-12.9888
longing	-12.9889
YOU	-12.9889
tooken	-12.989
lips	-12.989
▁thi	-12.9891
crack	-12.9891
friend	-12.9892
culp	-12.9892
pads	-12.9892
burnt	-12.9892
ecent	-12.9892
birds	-12.9893
bab	-12.9893
swipe	-12.9893
Debbie	-12.9893
Grady	-12.9893
Monster	-12.9893
Thyme	-12.9893
Timbaland	-12.9893
standards	-12.9893
climate	-12.9893
cray	-12.9893
sync	-12.9893
conduct	-12.9893
president	-12.9893
Redman	-12.9893
drive	-12.9893
whooping	-12.9894
Tony	-12.9894
wash	-12.9894
Piss	-12.9894
**	-12.9894
Kane	-12.9894
shrooms	-12.9895
duct	-12.9895
caus	-12.9895
▁divorc	-12.9895
▁Char	-12.9895
ubba	-12.9895
Star	-12.9896
Psych	-12.9896
Master	-12.9896
blank	-12.9896
Jeff	-12.9896
kamikaze	-12.9896
Bullet	-12.9896
blasted	-12.9897
Slam	-12.9897
washer	-12.9898
whattup	-12.9898
nails	-12.9898
▁predi	-12.9898
preach	-12.9898
Spray	-12.9898
(?)	-12.9898
200	-12.9898
foul	-12.9898
jacket	-12.9898
whipped	-12.9898
Fuzz	-12.9898
Vietnam	-12.9898
prepared	-12.9898
scale	-12.9898
otte	-12.9898
towel	-12.9898
Todd	-12.9898
ducing	-12.9899
rink	-12.9899
FUCK	-12.9899
pilot	-12.9899
terrestrial	-12.9899
Glock	-12.9899
strike	-12.9899
Abra	-12.9899
league	-12.9899
Holy	-12.9899
Col	-12.9899
gular	-12.99
shady	-12.99
Check	-12.99
Chris	-12.99
powder	-12.99
durin	-12.99
Murder	-12.99
birthday	-12.99
victim	-12.99
High	-12.99
cris	-12.9901
Excuse	-12.9901
horse	-12.9901
Motherfucker	-12.9901
curtains	-12.9901
driving	-12.9901
responsible	-12.9901
grind	-12.9901
Stick	-12.9901
dancing	-12.9901
bottles	-12.9901
capped	-12.9901
Follow	-12.9901
Kanye	-12.9901
predict	-12.9901
wit	-12.9901
▁syn	-12.9901
suicide	-12.9901
South	-12.9901
Walk	-12.9902
repeat	-12.9902
Could	-12.9902
position	-12.9902
Trick	-12.9902
▁judg	-12.9902
serv	-12.9902
assholes	-12.9902
press	-12.9902
ncil	-12.9902
Hollywood	-12.9902
Michael	-12.9902
fifth	-12.9902
loud	-12.9902
strip	-12.9902
lyrical	-12.9902
protect	-12.9902
dispute	-12.9902
Save	-12.9902
promise	-12.9902
Think	-12.9902
Blood	-12.9902
crowd	-12.9902
slide	-12.9902
Americans	-12.9903
cheek	-12.9903
hammer	-12.9903
clean	-12.9903
Somebody	-12.9903
Throw	-12.9903
twisted	-12.9903
poster	-12.9903
speak	-12.9903
Someone	-12.9903
Mommy	-12.9903
wire	-12.9903
▁retir	-12.9903
Stay	-12.9903
Jump	-12.9903
▁schem	-12.9903
Lord	-12.9903
explain	-12.9903
▁motivate	-12.9903
John	-12.9903
addict	-12.9903
America	-12.9903
between	-12.9904
weight	-12.9904
basket	-12.9904
route	-12.9904
blown	-12.9904
operate	-12.9904
bomb	-12.9904
wound	-12.9904
knife	-12.9904
blade	-12.9904
nigga	-12.9904
throne	-12.9904
choo	-12.9904
Aww	-12.9904
Dad	-12.9904
Less	-12.9905
Because	-12.9905
Black	-12.9905
▁circl	-12.9905
bury	-12.9905
motherfucking	-12.9905
brother	-12.9906
easy	-12.9906
dead	-12.9906
parent	-12.9906
Watch	-12.9906
again	-12.9906
front	-12.9906
high	-12.9906
wheel	-12.9906
broad	-12.9906
Eight	-12.9906
Bron	-12.9907
sitting	-12.9907
style	-12.9907
job	-12.9907
weather	-12.9907
office	-12.9907
blowing	-12.9907
app	-12.9908
coast	-12.9908
pussy	-12.9908
ncreas	-12.9908
heroin	-12.9908
▁realiz	-12.9908
pap	-12.9909
▁craz	-12.9909
▁Comb	-12.9909
peace	-12.9909
myself	-12.9909
rush	-12.991
blood	-12.991
shock	-12.991
▁complicat	-12.991
▁reminisc	-12.991
count	-12.9911
cracker	-12.9911
Kim	-12.9911
urge	-12.9911
haul	-12.9911
East	-12.9912
week	-12.9912
sniff	-12.9912
Edna	-12.9912
wow	-12.9912
bound	-12.9913
anks	-12.9913
Gener	-12.9913
hundred	-12.9913
Dick	-12.9914
track	-12.9914
venom	-12.9914
shut	-12.9914
Dave	-12.9915
Ali	-12.9916
maniac	-12.9916
▁perce	-12.9916
Said	-12.9916
refer	-12.9916
pplying	-12.9916
▁tramp	-12.9916
pow	-12.9917
▁poem	-12.9917
▁chu	-12.9919
Face	-12.9919
kids	-12.9919
cumb	-12.992
sweet	-12.992
chk	-12.992
took	-12.9921
put	-12.9921
Bizzy	-12.9921
humble	-12.9921
ignment	-12.9921
Shh	-12.9921
Land	-12.9921
Say	-12.9921
sexy	-12.9922
paper	-12.9922
Nobody	-12.9922
course	-12.9922
pants	-12.9923
click	-12.9923
tires	-12.9923
Mom	-12.9923
▁Nik	-12.9923
▁Condit	-12.9924
Speed	-12.9924
roof	-12.9924
their	-12.9924
See	-12.9924
eenagers	-12.9924
code	-12.9924
DJ	-12.9925
▁accomplish	-12.9925
Ahh	-12.9925
pository	-12.9925
TV	-12.9925
Nope	-12.9926
coa	-12.9926
okay	-12.9927
chased	-12.9927
Up	-12.9927
▁nurs	-12.9927
▁savi	-12.9928
appadon	-12.9928
▁robb	-12.9928
▁sublim	-12.9928
Ayo	-12.9928
▁discourag	-12.9928
▁provok	-12.9928
▁accuse	-12.9929
iqui	-12.9929
▁appl	-12.9929
▁regist	-12.9929
ointed	-12.9929
dust	-12.9929
▁Rip	-12.9929
force	-12.9929
▁brainwash	-12.993
▁expire	-12.993
alty	-12.993
▁Letter	-12.993
▁Cau	-12.9931
cycl	-12.9931
after	-12.9932
▁wrestl	-12.9932
Duck	-12.9932
sembl	-12.9933
▁depress	-12.9933
▁separat	-12.9933
Air	-12.9933
sheet	-12.9934
teria	-12.9934
sky	-12.9935
▁excite	-12.9935
▁bubbl	-12.9936
Hate	-12.9936
upper	-12.9936
kissin	-12.9936
eady	-12.9937
etamin	-12.9937
DIE	-12.9937
chasing	-12.9938
▁dye	-12.9938
Oww	-12.9938
empty	-12.9938
intro	-12.9938
▁jab	-12.9939
▁snar	-12.9939
ickets	-12.9939
▁submi	-12.994
Wha	-12.994
▁escapi	-12.994
▁typ	-12.994
ainkillers	-12.994
▁twe	-12.994
occurr	-12.9941
▁craw	-12.9941
▁Crus	-12.9941
how	-12.9941
magin	-12.9941
membran	-12.9941
since	-12.9941
beep	-12.9942
▁swerv	-12.9942
▁crow	-12.9942
▁Relaps	-12.9943
vag	-12.9943
▁livi	-12.9944
rica	-12.9944
▁budg	-12.9944
▁suicid	-12.9944
Bizz	-12.9944
▁futur	-12.9944
host	-12.9945
▁spil	-12.9945
fitted	-12.9946
▁dab	-12.9946
▁sniffin	-12.9947
nec	-12.9948
▁identit	-12.9948
law	-12.9948
▁Tah	-12.9949
▁destin	-12.9949
potent	-12.9949
▁ecstas	-12.9949
Protect	-12.9949
▁happ	-12.9949
mission	-12.9949
▁Craz	-12.995
Gui	-12.995
▁controvers	-12.995
▁terroris	-12.995
▁hurr	-12.995
▁mush	-12.995
40	-12.995
pedal	-12.9951
blind	-12.9951
rapping	-12.9951
▁deliver	-12.9951
▁jac	-12.9952
smack	-12.9952
▁traged	-12.9952
iyyo	-12.9952
Hehe	-12.9952
▁grant	-12.9952
nslaught	-12.9953
tips	-12.9953
▁collab	-12.9953
▁subconscious	-12.9954
▁drow	-12.9954
believ	-12.9954
▁5'9	-12.9954
▁definite	-12.9954
▁Unabomb	-12.9954
▁Intell	-12.9954
▁publi	-12.9955
▁achiev	-12.9956
snake	-12.9956
▁neighbo	-12.9956
hand	-12.9956
OD	-12.9956
learned	-12.9957
nished	-12.9957
wift	-12.9957
▁anni	-12.9957
eaten	-12.9958
Rid	-12.9958
▁backstabbin	-12.9958
▁contemplatin	-12.9958
▁rev	-12.9959
▁freezin	-12.9959
diss	-12.9959
eached	-12.9959
▁pacin	-12.9959
▁embarrassin	-12.9959
▁hyster	-12.9959
▁marri	-12.9959
▁squeezin	-12.9959
▁strugglin	-12.9959
▁pizz	-12.996
Try	-12.996
▁kil	-12.996
▁nightmar	-12.996
▁writin	-12.996
▁opti	-12.996
▁boun	-12.996
For	-12.996
elapse	-12.996
cissor	-12.996
nuously	-12.9961
▁symp	-12.9961
ylenol	-12.9961
▁ris	-12.9961
nguish	-12.9961
nstinct	-12.9961
ooooo	-12.9961
▁backstabbe	-12.9961
▁conversat	-12.9961
rnered	-12.9961
aliva	-12.9961
▁descripti	-12.9961
nsanity	-12.9961
ntroducing	-12.9962
mmediately	-12.9962
ndustry	-12.9962
hrist	-12.9962
nnocent	-12.9962
goat	-12.9962
harmaceuticals	-12.9962
nvite	-12.9962
▁mirac	-12.9962
ubliminal	-12.9962
ympathy	-12.9962
tripper	-12.9962
wimming	-12.9962
UCK	-12.9962
queeze	-12.9962
ompetitors	-12.9962
ontemplating	-12.9962
yllables	-12.9962
ygones	-12.9962
calpel	-12.9962
tadium	-12.9962
loppy	-12.9962
▁reflect	-12.9963
▁wilin	-12.9963
▁occu	-12.9963
magination	-12.9963
ransvestite	-12.9963
ayonara	-12.9963
fects	-12.9963
ircle	-12.9963
riminal	-12.9963
Young	-12.9963
ontrol	-12.9963
▁phenom	-12.9963
ongress	-12.9963
ivorce	-12.9963
▁menstrua	-12.9963
ockingbird	-12.9963
▁volcan	-12.9963
ecret	-12.9963
uscles	-12.9963
ainstream	-12.9963
ethadone	-12.9963
ocksucker	-12.9963
ontinue	-12.9963
etaphor	-12.9963
ffice	-12.9963
flower	-12.9963
arijuana	-12.9963
isturb	-12.9963
▁explo	-12.9963
▁favo	-12.9964
▁voca	-12.9964
hythm	-12.9964
escent	-12.9964
▁psychologi	-12.9964
ejects	-12.9964
esuscitate	-12.9964
oncert	-12.9964
rojects	-12.9964
▁syphil	-12.9964
ermaine	-12.9964
▁pond	-12.9964
▁accelera	-12.9964
▁religio	-12.9964
ntroduce	-12.9964
cstasy	-12.9964
xperiment	-12.9964
ntertainment	-12.9964
▁hypocri	-12.9964
constru	-12.9964
onnecti	-12.9964
xpect	-12.9964
▁opportuni	-12.9964
CD	-12.9964
worm	-12.9964
▁advance	-12.9964
oscop	-12.9964
athroom	-12.9964
eighbors	-12.9964
responsi	-12.9964
▁appare	-12.9964
▁gentle	-12.9964
raggin	-12.9964
